#include "magic_wand_model_data.h"


// We need to keep the data array aligned on some architectures.

#ifdef __has_attribute

#define HAVE_ATTRIBUTE(x) __has_attribute(x)

#else

#define HAVE_ATTRIBUTE(x) 0

#endif

#if HAVE_ATTRIBUTE(aligned) || (defined(__GNUC__) && !defined(__clang__))

#define DATA_ALIGN_ATTRIBUTE __attribute__((aligned(4)))

#else

#define DATA_ALIGN_ATTRIBUTE

#endif


const unsigned char g_magic_wand_model_data[] DATA_ALIGN_ATTRIBUTE = {

  // Paste the data of the char array in `src/model.cc` here

  0x08, 0x00, 0x00, 0x00, 0x54, 0x46, 0x4c, 0x33, 0x62, 0xff, 0xff, 0xff,
  0x03, 0x00, 0x00, 0x00, 0x10, 0x00, 0x00, 0x00, 0x24, 0x00, 0x00, 0x00,
  0x78, 0x00, 0x00, 0x00, 0x24, 0x00, 0x00, 0x00, 0x05, 0x00, 0x00, 0x00,
  0x78, 0x05, 0x00, 0x00, 0xb0, 0x04, 0x00, 0x00, 0xe0, 0x02, 0x00, 0x00,
  0x60, 0x02, 0x00, 0x00, 0x54, 0x01, 0x00, 0x00, 0x01, 0x00, 0x00, 0x00,
  0x78, 0x00, 0x00, 0x00, 0x13, 0x00, 0x00, 0x00, 0xd4, 0x2f, 0x00, 0x00,
  0xd0, 0x2f, 0x00, 0x00, 0xdc, 0x2e, 0x00, 0x00, 0x68, 0x2e, 0x00, 0x00,
  0xfc, 0x2d, 0x00, 0x00, 0xac, 0x11, 0x00, 0x00, 0x98, 0x10, 0x00, 0x00,
  0xbc, 0x0e, 0x00, 0x00, 0x60, 0x06, 0x00, 0x00, 0xfc, 0x05, 0x00, 0x00,
  0x78, 0x05, 0x00, 0x00, 0xa8, 0x2f, 0x00, 0x00, 0xa4, 0x2f, 0x00, 0x00,
  0xa0, 0x2f, 0x00, 0x00, 0x9c, 0x2f, 0x00, 0x00, 0x98, 0x2f, 0x00, 0x00,
  0x94, 0x2f, 0x00, 0x00, 0x90, 0x2f, 0x00, 0x00, 0x8c, 0x2f, 0x00, 0x00,
  0x0f, 0x00, 0x00, 0x00, 0x4d, 0x4c, 0x49, 0x52, 0x20, 0x43, 0x6f, 0x6e,
  0x76, 0x65, 0x72, 0x74, 0x65, 0x64, 0x2e, 0x00, 0x00, 0x00, 0x0e, 0x00,
  0x18, 0x00, 0x04, 0x00, 0x08, 0x00, 0x0c, 0x00, 0x10, 0x00, 0x14, 0x00,
  0x0e, 0x00, 0x00, 0x00, 0x14, 0x00, 0x00, 0x00, 0x5c, 0x00, 0x00, 0x00,
  0x60, 0x00, 0x00, 0x00, 0x64, 0x00, 0x00, 0x00, 0x84, 0x00, 0x00, 0x00,
  0x12, 0x00, 0x00, 0x00, 0x04, 0x2f, 0x00, 0x00, 0xa0, 0x2e, 0x00, 0x00,
  0xf8, 0x2d, 0x00, 0x00, 0x98, 0x2d, 0x00, 0x00, 0x30, 0x2d, 0x00, 0x00,
  0xdc, 0x10, 0x00, 0x00, 0xc0, 0x0f, 0x00, 0x00, 0xe4, 0x0d, 0x00, 0x00,
  0xa0, 0x05, 0x00, 0x00, 0x3c, 0x05, 0x00, 0x00, 0xb0, 0x04, 0x00, 0x00,
  0xe8, 0x03, 0x00, 0x00, 0x38, 0x03, 0x00, 0x00, 0xa4, 0x02, 0x00, 0x00,
  0x10, 0x02, 0x00, 0x00, 0x90, 0x01, 0x00, 0x00, 0xfc, 0x00, 0x00, 0x00,
  0x80, 0x00, 0x00, 0x00, 0x01, 0x00, 0x00, 0x00, 0x00, 0x00, 0x00, 0x00,
  0x01, 0x00, 0x00, 0x00, 0x11, 0x00, 0x00, 0x00, 0x08, 0x00, 0x00, 0x00,
  0x1c, 0x04, 0x00, 0x00, 0x58, 0x03, 0x00, 0x00, 0xc8, 0x02, 0x00, 0x00,
  0x24, 0x02, 0x00, 0x00, 0xac, 0x01, 0x00, 0x00, 0x10, 0x01, 0x00, 0x00,
  0x94, 0x00, 0x00, 0x00, 0x10, 0x00, 0x00, 0x00, 0x04, 0x00, 0x00, 0x00,
  0x6d, 0x61, 0x69, 0x6e, 0x00, 0x00, 0x00, 0x00, 0x8e, 0xff, 0xff, 0xff,
  0x00, 0x00, 0x00, 0x09, 0x04, 0x00, 0x00, 0x00, 0x1c, 0x00, 0x00, 0x00,
  0x10, 0x00, 0x00, 0x00, 0x04, 0x00, 0x00, 0x00, 0x4e, 0xd2, 0xff, 0xff,
  0x00, 0x00, 0x80, 0x3f, 0x01, 0x00, 0x00, 0x00, 0x11, 0x00, 0x00, 0x00,
  0x01, 0x00, 0x00, 0x00, 0x10, 0x00, 0x00, 0x00, 0xf6, 0xfb, 0xff, 0xff,
  0x00, 0x00, 0x00, 0x19, 0x01, 0x00, 0x00, 0x00, 0xce, 0xd1, 0xff, 0xff,
  0x10, 0x00, 0x00, 0x00, 0x12, 0x00, 0x00, 0x00, 0x14, 0x00, 0x00, 0x00,
  0x20, 0x00, 0x00, 0x00, 0x02, 0x00, 0x00, 0x00, 0x01, 0x00, 0x00, 0x00,
  0x03, 0x00, 0x00, 0x00, 0x08, 0x00, 0x00, 0x00, 0x49, 0x64, 0x65, 0x6e,
  0x74, 0x69, 0x74, 0x79, 0x00, 0x00, 0x00, 0x00, 0x08, 0xd2, 0xff, 0xff,
  0x00, 0x00, 0x0e, 0x00, 0x18, 0x00, 0x08, 0x00, 0x0c, 0x00, 0x10, 0x00,
  0x07, 0x00, 0x14, 0x00, 0x0e, 0x00, 0x00, 0x00, 0x00, 0x00, 0x00, 0x08,
  0x03, 0x00, 0x00, 0x00, 0x18, 0x00, 0x00, 0x00, 0x0c, 0x00, 0x00, 0x00,
  0x04, 0x00, 0x00, 0x00, 0xdc, 0xd1, 0xff, 0xff, 0x01, 0x00, 0x00, 0x00,
  0x10, 0x00, 0x00, 0x00, 0x03, 0x00, 0x00, 0x00, 0x0f, 0x00, 0x00, 0x00,
  0x05, 0x00, 0x00, 0x00, 0x02, 0x00, 0x00, 0x00, 0x46, 0xd2, 0xff, 0xff,
  0x10, 0x00, 0x00, 0x00, 0x11, 0x00, 0x00, 0x00, 0x14, 0x00, 0x00, 0x00,
  0x30, 0x00, 0x00, 0x00, 0x02, 0x00, 0x00, 0x00, 0x01, 0x00, 0x00, 0x00,
  0x03, 0x00, 0x00, 0x00, 0x1a, 0x00, 0x00, 0x00, 0x73, 0x65, 0x71, 0x75,
  0x65, 0x6e, 0x74, 0x69, 0x61, 0x6c, 0x2f, 0x64, 0x65, 0x6e, 0x73, 0x65,
  0x5f, 0x31, 0x2f, 0x42, 0x69, 0x61, 0x73, 0x41, 0x64, 0x64, 0x00, 0x00,
  0x38, 0xd2, 0xff, 0xff, 0xd6, 0xfd, 0xff, 0xff, 0x00, 0x00, 0x00, 0x08,
  0x03, 0x00, 0x00, 0x00, 0x24, 0x00, 0x00, 0x00, 0x18, 0x00, 0x00, 0x00,
  0x0c, 0x00, 0x00, 0x00, 0x00, 0x00, 0x06, 0x00, 0x08, 0x00, 0x07, 0x00,
  0x06, 0x00, 0x00, 0x00, 0x00, 0x00, 0x00, 0x01, 0x01, 0x00, 0x00, 0x00,
  0x0f, 0x00, 0x00, 0x00, 0x03, 0x00, 0x00, 0x00, 0x0e, 0x00, 0x00, 0x00,
  0x04, 0x00, 0x00, 0x00, 0x01, 0x00, 0x00, 0x00, 0xfe, 0xfc, 0xff, 0xff,
  0x00, 0x00, 0x00, 0x09, 0x01, 0x00, 0x00, 0x00, 0xd6, 0xd2, 0xff, 0xff,
  0x10, 0x00, 0x00, 0x00, 0x10, 0x00, 0x00, 0x00, 0x14, 0x00, 0x00, 0x00,
  0x2c, 0x00, 0x00, 0x00, 0x02, 0x00, 0x00, 0x00, 0x01, 0x00, 0x00, 0x00,
  0x10, 0x00, 0x00, 0x00, 0x15, 0x00, 0x00, 0x00, 0x73, 0x65, 0x71, 0x75,
  0x65, 0x6e, 0x74, 0x69, 0x61, 0x6c, 0x2f, 0x64, 0x65, 0x6e, 0x73, 0x65,
  0x2f, 0x52, 0x65, 0x6c, 0x75, 0x00, 0x00, 0x00, 0x1c, 0xd3, 0xff, 0xff,
  0x00, 0x00, 0x0a, 0x00, 0x10, 0x00, 0x04, 0x00, 0x08, 0x00, 0x0c, 0x00,
  0x0a, 0x00, 0x00, 0x00, 0x02, 0x00, 0x00, 0x00, 0x10, 0x00, 0x00, 0x00,
  0x04, 0x00, 0x00, 0x00, 0x01, 0x00, 0x00, 0x00, 0x0e, 0x00, 0x00, 0x00,
  0x02, 0x00, 0x00, 0x00, 0x0d, 0x00, 0x00, 0x00, 0x03, 0x00, 0x00, 0x00,
  0x7a, 0xfd, 0xff, 0xff, 0x00, 0x00, 0x00, 0x16, 0x01, 0x00, 0x00, 0x00,
  0x52, 0xd3, 0xff, 0xff, 0x10, 0x00, 0x00, 0x00, 0x0f, 0x00, 0x00, 0x00,
  0x14, 0x00, 0x00, 0x00, 0x30, 0x00, 0x00, 0x00, 0x02, 0x00, 0x00, 0x00,
  0x01, 0x00, 0x00, 0x00, 0x70, 0x00, 0x00, 0x00, 0x1a, 0x00, 0x00, 0x00,
  0x73, 0x65, 0x71, 0x75, 0x65, 0x6e, 0x74, 0x69, 0x61, 0x6c, 0x2f, 0x66,
  0x6c, 0x61, 0x74, 0x74, 0x65, 0x6e, 0x2f, 0x52, 0x65, 0x73, 0x68, 0x61,
  0x70, 0x65, 0x00, 0x00, 0x44, 0xd3, 0xff, 0xff, 0xe2, 0xfe, 0xff, 0xff,
  0x00, 0x00, 0x00, 0x05, 0x01, 0x00, 0x00, 0x00, 0x38, 0x00, 0x00, 0x00,
  0x2c, 0x00, 0x00, 0x00, 0x14, 0x00, 0x00, 0x00, 0x00, 0x00, 0x0e, 0x00,
  0x14, 0x00, 0x00, 0x00, 0x10, 0x00, 0x0c, 0x00, 0x08, 0x00, 0x04, 0x00,
  0x0e, 0x00, 0x00, 0x00, 0x03, 0x00, 0x00, 0x00, 0x01, 0x00, 0x00, 0x00,
  0x03, 0x00, 0x00, 0x00, 0x01, 0x00, 0x00, 0x00, 0x01, 0x00, 0x00, 0x00,
  0x0d, 0x00, 0x00, 0x00, 0x01, 0x00, 0x00, 0x00, 0x0c, 0x00, 0x00, 0x00,
  0xe2, 0xd3, 0xff, 0xff, 0x10, 0x00, 0x00, 0x00, 0x0e, 0x00, 0x00, 0x00,
  0x1c, 0x00, 0x00, 0x00, 0x40, 0x00, 0x00, 0x00, 0x04, 0x00, 0x00, 0x00,
  0x01, 0x00, 0x00, 0x00, 0x07, 0x00, 0x00, 0x00, 0x01, 0x00, 0x00, 0x00,
  0x10, 0x00, 0x00, 0x00, 0x22, 0x00, 0x00, 0x00, 0x73, 0x65, 0x71, 0x75,
  0x65, 0x6e, 0x74, 0x69, 0x61, 0x6c, 0x2f, 0x6d, 0x61, 0x78, 0x5f, 0x70,
  0x6f, 0x6f, 0x6c, 0x69, 0x6e, 0x67, 0x32, 0x64, 0x5f, 0x31, 0x2f, 0x4d,
  0x61, 0x78, 0x50, 0x6f, 0x6f, 0x6c, 0x00, 0x00, 0xe4, 0xd3, 0xff, 0xff,
  0xc2, 0xfe, 0xff, 0xff, 0x00, 0x00, 0x00, 0x01, 0x24, 0x00, 0x00, 0x00,
  0x18, 0x00, 0x00, 0x00, 0x04, 0x00, 0x00, 0x00, 0xb4, 0xfe, 0xff, 0xff,
  0x01, 0x00, 0x00, 0x00, 0x01, 0x00, 0x00, 0x00, 0x00, 0x00, 0x00, 0x01,
  0x01, 0x00, 0x00, 0x00, 0x0c, 0x00, 0x00, 0x00, 0x03, 0x00, 0x00, 0x00,
  0x0b, 0x00, 0x00, 0x00, 0x07, 0x00, 0x00, 0x00, 0x09, 0x00, 0x00, 0x00,
  0x72, 0xd4, 0xff, 0xff, 0x10, 0x00, 0x00, 0x00, 0x0d, 0x00, 0x00, 0x00,
  0x1c, 0x00, 0x00, 0x00, 0x2c, 0x00, 0x00, 0x00, 0x04, 0x00, 0x00, 0x00,
  0x01, 0x00, 0x00, 0x00, 0x15, 0x00, 0x00, 0x00, 0x01, 0x00, 0x00, 0x00,
  0x10, 0x00, 0x00, 0x00, 0x0c, 0x00, 0x00, 0x00, 0x74, 0x66, 0x6c, 0x2e,
  0x63, 0x6f, 0x6e, 0x76, 0x5f, 0x32, 0x64, 0x31, 0x00, 0x00, 0x00, 0x00,
  0xb8, 0xd4, 0xff, 0xff, 0x00, 0x00, 0x0e, 0x00, 0x1a, 0x00, 0x08, 0x00,
  0x0c, 0x00, 0x10, 0x00, 0x07, 0x00, 0x14, 0x00, 0x0e, 0x00, 0x00, 0x00,
  0x00, 0x00, 0x00, 0x05, 0x01, 0x00, 0x00, 0x00, 0x3c, 0x00, 0x00, 0x00,
  0x30, 0x00, 0x00, 0x00, 0x14, 0x00, 0x00, 0x00, 0x00, 0x00, 0x0e, 0x00,
  0x18, 0x00, 0x17, 0x00, 0x10, 0x00, 0x0c, 0x00, 0x08, 0x00, 0x04, 0x00,
  0x0e, 0x00, 0x00, 0x00, 0x03, 0x00, 0x00, 0x00, 0x03, 0x00, 0x00, 0x00,
  0x03, 0x00, 0x00, 0x00, 0x03, 0x00, 0x00, 0x00, 0x00, 0x00, 0x00, 0x01,
  0x01, 0x00, 0x00, 0x00, 0x0b, 0x00, 0x00, 0x00, 0x01, 0x00, 0x00, 0x00,
  0x0a, 0x00, 0x00, 0x00, 0x46, 0xff, 0xff, 0xff, 0x00, 0x00, 0x00, 0x11,
  0x01, 0x00, 0x00, 0x00, 0x1e, 0xd5, 0xff, 0xff, 0x10, 0x00, 0x00, 0x00,
  0x0c, 0x00, 0x00, 0x00, 0x1c, 0x00, 0x00, 0x00, 0x40, 0x00, 0x00, 0x00,
  0x04, 0x00, 0x00, 0x00, 0x01, 0x00, 0x00, 0x00, 0x15, 0x00, 0x00, 0x00,
  0x01, 0x00, 0x00, 0x00, 0x08, 0x00, 0x00, 0x00, 0x20, 0x00, 0x00, 0x00,
  0x73, 0x65, 0x71, 0x75, 0x65, 0x6e, 0x74, 0x69, 0x61, 0x6c, 0x2f, 0x6d,
  0x61, 0x78, 0x5f, 0x70, 0x6f, 0x6f, 0x6c, 0x69, 0x6e, 0x67, 0x32, 0x64,
  0x2f, 0x4d, 0x61, 0x78, 0x50, 0x6f, 0x6f, 0x6c, 0x00, 0x00, 0x00, 0x00,
  0x78, 0xd5, 0xff, 0xff, 0x00, 0x00, 0x0e, 0x00, 0x14, 0x00, 0x00, 0x00,
  0x08, 0x00, 0x0c, 0x00, 0x07, 0x00, 0x10, 0x00, 0x0e, 0x00, 0x00, 0x00,
  0x00, 0x00, 0x00, 0x01, 0x30, 0x00, 0x00, 0x00, 0x24, 0x00, 0x00, 0x00,
  0x10, 0x00, 0x00, 0x00, 0x0c, 0x00, 0x10, 0x00, 0x00, 0x00, 0x04, 0x00,
  0x08, 0x00, 0x0f, 0x00, 0x0c, 0x00, 0x00, 0x00, 0x01, 0x00, 0x00, 0x00,
  0x01, 0x00, 0x00, 0x00, 0x00, 0x00, 0x00, 0x01, 0x01, 0x00, 0x00, 0x00,
  0x0a, 0x00, 0x00, 0x00, 0x03, 0x00, 0x00, 0x00, 0x00, 0x00, 0x00, 0x00,
  0x06, 0x00, 0x00, 0x00, 0x08, 0x00, 0x00, 0x00, 0x00, 0x00, 0x0a, 0x00,
  0x0c, 0x00, 0x07, 0x00, 0x00, 0x00, 0x08, 0x00, 0x0a, 0x00, 0x00, 0x00,
  0x00, 0x00, 0x00, 0x03, 0x01, 0x00, 0x00, 0x00, 0xe2, 0xd5, 0xff, 0xff,
  0x10, 0x00, 0x00, 0x00, 0x0b, 0x00, 0x00, 0x00, 0x1c, 0x00, 0x00, 0x00,
  0x28, 0x00, 0x00, 0x00, 0x04, 0x00, 0x00, 0x00, 0x01, 0x00, 0x00, 0x00,
  0x40, 0x00, 0x00, 0x00, 0x03, 0x00, 0x00, 0x00, 0x08, 0x00, 0x00, 0x00,
  0x0b, 0x00, 0x00, 0x00, 0x74, 0x66, 0x6c, 0x2e, 0x63, 0x6f, 0x6e, 0x76,
  0x5f, 0x32, 0x64, 0x00, 0xcc, 0xd5, 0xff, 0xff, 0xc2, 0xd6, 0xff, 0xff,
  0x04, 0x00, 0x00, 0x00, 0x40, 0x00, 0x00, 0x00, 0xbb, 0x3e, 0xa1, 0x3e,
  0x21, 0x6e, 0x86, 0x3f, 0x93, 0x24, 0xad, 0x3e, 0x37, 0xf4, 0x2c, 0xbe,
  0xfa, 0x39, 0x25, 0xc0, 0xf8, 0x58, 0x0d, 0x3e, 0x34, 0x96, 0x3e, 0x3f,
  0xaf, 0x6a, 0xe3, 0xbe, 0x03, 0x2a, 0x58, 0x3f, 0xe2, 0xab, 0x08, 0x3d,
  0xc7, 0xa3, 0x6e, 0xbd, 0x84, 0xd0, 0x86, 0x3e, 0x63, 0x65, 0x88, 0xbe,
  0xe5, 0x6b, 0x90, 0xbf, 0xf8, 0x81, 0xc3, 0xbf, 0x50, 0x1e, 0x55, 0xbf,
  0x6a, 0xd6, 0xff, 0xff, 0x10, 0x00, 0x00, 0x00, 0x0a, 0x00, 0x00, 0x00,
  0x10, 0x00, 0x00, 0x00, 0x20, 0x00, 0x00, 0x00, 0x01, 0x00, 0x00, 0x00,
  0x10, 0x00, 0x00, 0x00, 0x0d, 0x00, 0x00, 0x00, 0x73, 0x74, 0x64, 0x2e,
  0x63, 0x6f, 0x6e, 0x73, 0x74, 0x61, 0x6e, 0x74, 0x31, 0x00, 0x00, 0x00,
  0x4c, 0xd6, 0xff, 0xff, 0x42, 0xd7, 0xff, 0xff, 0x04, 0x00, 0x00, 0x00,
  0x20, 0x00, 0x00, 0x00, 0x96, 0x8a, 0xa8, 0xbf, 0xd0, 0xdb, 0xd2, 0xbf,
  0xfb, 0xeb, 0x7f, 0x3f, 0x55, 0x8c, 0xd0, 0xbf, 0x8c, 0xce, 0xc5, 0xbf,
  0x89, 0x2a, 0xf2, 0xbf, 0xb2, 0x47, 0xb0, 0xbf, 0x87, 0xa9, 0x9f, 0xbf,
  0xca, 0xd6, 0xff, 0xff, 0x10, 0x00, 0x00, 0x00, 0x09, 0x00, 0x00, 0x00,
  0x10, 0x00, 0x00, 0x00, 0x20, 0x00, 0x00, 0x00, 0x01, 0x00, 0x00, 0x00,
  0x08, 0x00, 0x00, 0x00, 0x0c, 0x00, 0x00, 0x00, 0x73, 0x74, 0x64, 0x2e,
  0x63, 0x6f, 0x6e, 0x73, 0x74, 0x61, 0x6e, 0x74, 0x00, 0x00, 0x00, 0x00,
  0xac, 0xd6, 0xff, 0xff, 0xa2, 0xd7, 0xff, 0xff, 0x04, 0x00, 0x00, 0x00,
  0x00, 0x08, 0x00, 0x00, 0x3c, 0x3b, 0xa6, 0x3e, 0x6c, 0x4e, 0x44, 0xbe,
  0x6f, 0x85, 0xb6, 0xbe, 0xe0, 0x2c, 0x07, 0xbf, 0xc6, 0x03, 0xf6, 0xbe,
  0xd2, 0xe7, 0x81, 0x3e, 0xed, 0x52, 0xf9, 0xbb, 0x80, 0xd3, 0x3f, 0xbd,
  0x58, 0xa7, 0x98, 0xbd, 0x49, 0x3c, 0x80, 0xbe, 0x76, 0xb5, 0x88, 0xbe,
  0xa5, 0x98, 0x18, 0xbf, 0x69, 0xac, 0x07, 0xbf, 0x0d, 0xcc, 0x49, 0xbd,
  0x21, 0xd6, 0x2d, 0xbc, 0x6f, 0x27, 0xf7, 0x3e, 0x9b, 0x1f, 0x4a, 0xbd,
  0x34, 0x92, 0xa7, 0xbe, 0x05, 0xbb, 0xd5, 0xbd, 0xa8, 0x3c, 0x37, 0xbf,
  0x46, 0x9f, 0x16, 0xbf, 0xeb, 0x0a, 0x11, 0xbc, 0xac, 0x7e, 0x9a, 0xbb,
  0x03, 0x94, 0x28, 0x3e, 0x05, 0x8e, 0x75, 0x3e, 0xfa, 0x9b, 0xba, 0xbd,
  0x3f, 0x85, 0xa2, 0xbe, 0x88, 0x81, 0x4a, 0x3e, 0x64, 0xce, 0x0e, 0x3e,
  0xcc, 0x53, 0xc6, 0xbc, 0xb1, 0xce, 0x83, 0xbc, 0x73, 0xfa, 0x22, 0x3d,
  0x77, 0xb1, 0x14, 0x3e, 0x11, 0x84, 0x96, 0xbd, 0x79, 0x7e, 0x98, 0x3d,
  0xfd, 0xe6, 0xe0, 0x3e, 0xa4, 0x59, 0xc1, 0x3e, 0x56, 0x1d, 0xbe, 0xbd,
  0xaf, 0xc6, 0xc0, 0xbe, 0x5e, 0x18, 0x55, 0x3e, 0x96, 0x99, 0xa4, 0xbc,
  0x80, 0x2c, 0x38, 0x3d, 0x3e, 0x5c, 0xc8, 0xbb, 0xf6, 0x69, 0x11, 0x3e,
  0xa5, 0x24, 0xbc, 0x3e, 0xe3, 0x4b, 0x1e, 0xbe, 0x74, 0x1c, 0xb9, 0xbe,
  0xa5, 0x9b, 0x3d, 0x3e, 0x99, 0x3d, 0x01, 0xbe, 0xed, 0x41, 0xaf, 0xbd,
  0x6a, 0xc6, 0xd6, 0xbd, 0xad, 0xd5, 0x0e, 0xbd, 0x76, 0x6b, 0xcb, 0x3c,
  0xc1, 0xf3, 0x88, 0xbe, 0x37, 0x9e, 0x14, 0xbf, 0x3d, 0xdd, 0x4f, 0xbd,
  0xbf, 0xee, 0x8d, 0xbe, 0xa0, 0x0e, 0xb0, 0x3d, 0xac, 0x10, 0x90, 0x3d,
  0x37, 0x4f, 0xc0, 0x3e, 0x77, 0xd4, 0xa7, 0x3e, 0x48, 0x39, 0x32, 0xbe,
  0x21, 0x89, 0x10, 0xbf, 0xae, 0x38, 0xa5, 0x3e, 0xed, 0x34, 0x16, 0x3e,
  0x8e, 0xa3, 0x7a, 0xbe, 0x17, 0x65, 0x26, 0xbe, 0xb0, 0x26, 0xaa, 0xbd,
  0xdb, 0x4b, 0x10, 0x3b, 0x8a, 0x61, 0xa4, 0x3e, 0x7e, 0xa7, 0x61, 0xbd,
  0xbb, 0x16, 0xa9, 0xbe, 0xd3, 0xa1, 0x46, 0xbe, 0xfd, 0xb3, 0x75, 0xbd,
  0xce, 0x7f, 0xc8, 0x3c, 0xaf, 0xc1, 0x90, 0xbe, 0x11, 0x46, 0x01, 0xbe,
  0x8f, 0x7a, 0x38, 0x3e, 0x1a, 0xa7, 0x46, 0xbc, 0x2c, 0x11, 0x8e, 0xbe,
  0x9d, 0x0e, 0x15, 0x3d, 0xc9, 0x6a, 0x29, 0xbe, 0x1d, 0x1a, 0xc9, 0xbd,
  0x72, 0xa9, 0x8f, 0xbe, 0x26, 0xe0, 0x5e, 0xbe, 0xb6, 0x10, 0xa4, 0x3e,
  0x21, 0x16, 0x3e, 0xbc, 0xec, 0x9f, 0xb4, 0xbe, 0x10, 0x5f, 0xd5, 0x3d,
  0x80, 0x0e, 0x63, 0xbe, 0x24, 0x4e, 0x18, 0xbe, 0x01, 0x7f, 0xad, 0xbe,
  0x9f, 0x08, 0xde, 0xbd, 0x04, 0x93, 0x88, 0xbe, 0x91, 0xb0, 0x3b, 0x3e,
  0xcd, 0x91, 0x01, 0xbf, 0x33, 0x70, 0x57, 0xbc, 0x81, 0x7f, 0xa3, 0xbe,
  0xda, 0xbd, 0x4e, 0xbe, 0x37, 0x7f, 0xda, 0x3d, 0xb6, 0xfd, 0xae, 0xbe,
  0x87, 0x01, 0x01, 0xbe, 0x5a, 0x2c, 0x2a, 0xbe, 0xc9, 0x09, 0x49, 0xbd,
  0x59, 0x4f, 0x88, 0xbe, 0xfe, 0x8b, 0x1c, 0x3d, 0x28, 0xd4, 0xc2, 0xbd,
  0x66, 0x84, 0x1b, 0x3e, 0xea, 0xc9, 0xb8, 0xbd, 0xd0, 0x63, 0x6e, 0xbd,
  0xe5, 0x8c, 0x9b, 0x3e, 0x1a, 0x7b, 0x9e, 0xbd, 0xdf, 0x0a, 0xad, 0xbd,
  0xe7, 0x87, 0x2f, 0x3d, 0xd6, 0xd1, 0x24, 0xbe, 0xa4, 0xf8, 0xb3, 0x3e,
  0xab, 0xbc, 0x40, 0x3e, 0xf7, 0x61, 0xdf, 0xbc, 0xc7, 0xee, 0xb3, 0xbd,
  0xd9, 0x9b, 0x79, 0x3d, 0xc1, 0xfd, 0x2c, 0xbc, 0x83, 0xe3, 0xb1, 0xbd,
  0xa3, 0xca, 0x0e, 0x3d, 0x76, 0x9e, 0x3d, 0x3d, 0x8c, 0x32, 0x02, 0x3d,
  0xf2, 0x31, 0x6e, 0xbd, 0xec, 0x2a, 0x7a, 0xbd, 0x32, 0x12, 0x29, 0x3e,
  0xb6, 0x8d, 0x88, 0xbd, 0x5a, 0xfc, 0xfa, 0x3d, 0x49, 0xdc, 0x6a, 0xbc,
  0xdf, 0x8d, 0xd7, 0x3e, 0x77, 0x0c, 0xde, 0xbd, 0x26, 0xcf, 0x19, 0x3e,
  0x53, 0x35, 0x06, 0xbd, 0x34, 0xa9, 0x24, 0x3f, 0x26, 0x91, 0x20, 0xbe,
  0x5e, 0xd4, 0x2a, 0x3e, 0x8c, 0x37, 0x3e, 0x3e, 0x56, 0x7c, 0x14, 0x3e,
  0xc8, 0x8a, 0x92, 0x3c, 0x6d, 0x73, 0x20, 0xbc, 0xa4, 0x68, 0x52, 0xbc,
  0x70, 0x88, 0x57, 0x3e, 0x00, 0xaf, 0x0c, 0xbe, 0x7d, 0x2b, 0x5c, 0xbe,
  0xf6, 0xba, 0x41, 0xbe, 0xe8, 0xc8, 0x20, 0x3d, 0x3d, 0xfe, 0x23, 0xbd,
  0x38, 0xd3, 0x5c, 0xbd, 0xa8, 0x85, 0x5b, 0xbe, 0xdf, 0x21, 0x68, 0xbe,
  0xb6, 0x06, 0xf7, 0x3c, 0x2f, 0xb1, 0xb1, 0xbe, 0x26, 0x74, 0x51, 0xbe,
  0x6e, 0x74, 0x64, 0xbe, 0x09, 0xbd, 0xc2, 0xbd, 0x70, 0xff, 0x99, 0xbd,
  0x7b, 0x3b, 0xa8, 0xbe, 0xa4, 0x79, 0xce, 0xbe, 0xf6, 0x08, 0x06, 0x3d,
  0xd9, 0xc4, 0x62, 0xbe, 0xdd, 0xd2, 0x27, 0xbe, 0x18, 0xfe, 0x8a, 0xbe,
  0x6e, 0x1a, 0x23, 0xbe, 0x78, 0x46, 0x18, 0xbd, 0x77, 0x6a, 0x7a, 0xbd,
  0xd0, 0x89, 0x33, 0xbe, 0x9e, 0xb6, 0xcf, 0xbd, 0x27, 0xeb, 0x39, 0xbe,
  0xaf, 0xc6, 0x2c, 0xbe, 0x90, 0x2f, 0x45, 0xbe, 0xee, 0x4c, 0x83, 0xbe,
  0x65, 0x0d, 0x02, 0xbd, 0x43, 0x3e, 0x4d, 0xbd, 0xde, 0x16, 0x34, 0xbe,
  0x9c, 0xbd, 0xff, 0xbd, 0x0b, 0xb2, 0x05, 0xbd, 0x83, 0x2c, 0xbb, 0x3d,
  0xe0, 0x7f, 0xae, 0x3e, 0x20, 0xc2, 0x29, 0xbe, 0xd3, 0x33, 0x0e, 0xbd,
  0x97, 0x2d, 0x64, 0xbd, 0x6a, 0xb7, 0xcd, 0xbd, 0xbe, 0x88, 0x6f, 0xbe,
  0x09, 0x7c, 0x1c, 0x3f, 0x20, 0x95, 0xfb, 0x3e, 0xd7, 0xaf, 0xc0, 0x3c,
  0xdf, 0xf5, 0x48, 0xbd, 0x81, 0x87, 0x59, 0x3c, 0xc2, 0xf5, 0xd9, 0x3d,
  0x72, 0x4a, 0x89, 0x3e, 0xf4, 0x1e, 0x17, 0xbe, 0xe0, 0xa5, 0x43, 0xbe,
  0x19, 0x50, 0x7f, 0xbe, 0xa7, 0x0a, 0x40, 0x3e, 0xba, 0x71, 0x3e, 0xbe,
  0x4c, 0xa0, 0xbd, 0xbf, 0xac, 0xe8, 0xb9, 0xbd, 0x3a, 0xa4, 0x7e, 0xbf,
  0x11, 0xe0, 0xf2, 0xbc, 0x6c, 0x99, 0xe0, 0x3d, 0x37, 0xe3, 0x73, 0x3e,
  0x1a, 0x82, 0x7c, 0x3e, 0x1b, 0x25, 0x90, 0x3e, 0xed, 0x3b, 0x7a, 0xbe,
  0x7d, 0x14, 0x34, 0xbd, 0xb6, 0x13, 0xc4, 0x3c, 0x61, 0xa2, 0x15, 0x3d,
  0x76, 0xe7, 0xbd, 0xbc, 0x36, 0x14, 0x8a, 0xbc, 0xb0, 0x26, 0x53, 0x3e,
  0x37, 0x8b, 0xe6, 0xbd, 0x23, 0x2d, 0x82, 0xbe, 0x15, 0x58, 0x1d, 0x3d,
  0xac, 0xbb, 0x23, 0xbe, 0x69, 0xc9, 0x68, 0x3d, 0x9e, 0x95, 0xae, 0x3e,
  0xe2, 0xbf, 0xf1, 0x3d, 0x09, 0xe5, 0x8f, 0x3e, 0xa7, 0x42, 0x3a, 0xbe,
  0xe4, 0x2f, 0x49, 0xbe, 0xae, 0x74, 0x68, 0xbc, 0xfd, 0x02, 0x56, 0xbe,
  0x1b, 0x47, 0x03, 0xbd, 0x70, 0x77, 0xa6, 0x3d, 0xee, 0x5a, 0xd0, 0xbd,
  0x2a, 0x98, 0x5e, 0x3f, 0x45, 0x69, 0x34, 0x3f, 0x44, 0xf7, 0xbd, 0xbc,
  0x35, 0xe8, 0x54, 0xb9, 0x94, 0xd0, 0xfd, 0x3d, 0x3c, 0x8e, 0xed, 0xbc,
  0xd8, 0x0d, 0x99, 0xbe, 0xf4, 0x30, 0x6e, 0xbe, 0xbb, 0x3d, 0xbe, 0xbd,
  0x6b, 0xef, 0x9d, 0xbd, 0x89, 0x25, 0xc5, 0xbc, 0xf6, 0xc1, 0x4d, 0xbc,
  0x57, 0x74, 0x03, 0xbe, 0xab, 0xf6, 0x8f, 0x3d, 0xc0, 0x15, 0x7c, 0xbe,
  0x17, 0xb7, 0x00, 0xbe, 0x38, 0x0e, 0x78, 0xbd, 0xdb, 0xf1, 0x04, 0xbd,
  0x63, 0x5f, 0x1a, 0x3c, 0x03, 0x76, 0x4f, 0xbc, 0x26, 0x1f, 0xdf, 0xbd,
  0xad, 0xc6, 0x61, 0x3d, 0xe3, 0x6d, 0x20, 0xbe, 0x40, 0x35, 0xaf, 0xbc,
  0x0f, 0xcb, 0xec, 0xbd, 0xf3, 0x80, 0xd1, 0xbd, 0x0a, 0x3a, 0x82, 0xbc,
  0xbe, 0x8c, 0xee, 0xbc, 0x83, 0x51, 0xd4, 0xbd, 0xac, 0xb0, 0x9e, 0xbe,
  0x99, 0x9a, 0xf5, 0xbe, 0x2c, 0x65, 0xc6, 0xbe, 0xc2, 0x21, 0x39, 0x3f,
  0xca, 0x22, 0x7e, 0xbb, 0x5b, 0x5b, 0xce, 0xbd, 0xb2, 0xf8, 0xd0, 0xbd,
  0xaf, 0x5d, 0xbb, 0xbe, 0xb4, 0x16, 0x95, 0x3e, 0x1b, 0x11, 0x37, 0xbe,
  0x38, 0x3e, 0xd6, 0xbd, 0xac, 0x11, 0x41, 0x3e, 0x49, 0x0c, 0xff, 0xbd,
  0x16, 0xc0, 0xb0, 0xbd, 0xe5, 0x12, 0xd8, 0xbd, 0x5a, 0x8d, 0x47, 0xbe,
  0x6f, 0x3b, 0x75, 0x3d, 0xd8, 0x80, 0x1a, 0xbe, 0xeb, 0x56, 0x18, 0xbe,
  0xbb, 0x07, 0x81, 0xbe, 0xcc, 0x7b, 0x82, 0xbe, 0x56, 0xa3, 0x90, 0xbd,
  0xc0, 0x46, 0x37, 0xbe, 0xeb, 0xbd, 0x46, 0xbe, 0xb5, 0x1e, 0x94, 0x3d,
  0xfc, 0x2c, 0x4d, 0x3d, 0xb4, 0x2a, 0xb9, 0x3e, 0x35, 0xe7, 0x33, 0xbe,
  0x28, 0xd9, 0x8c, 0xbc, 0xb8, 0x3e, 0x97, 0x3e, 0x3b, 0xb5, 0xc6, 0xbd,
  0x13, 0x95, 0x58, 0x3e, 0xdf, 0x11, 0xd9, 0xbe, 0x3d, 0x45, 0x91, 0xbe,
  0x95, 0x4b, 0x28, 0xbe, 0x77, 0x11, 0xd4, 0x3d, 0xf8, 0xe5, 0x05, 0x3e,
  0xa0, 0x4f, 0xe9, 0x3c, 0x5e, 0xaa, 0xb8, 0x3c, 0x52, 0x54, 0x3c, 0xbe,
  0x4d, 0xd9, 0xae, 0xbe, 0x07, 0xc6, 0xeb, 0xbe, 0x50, 0x0c, 0xc8, 0xbe,
  0x71, 0xc4, 0xaf, 0x3c, 0x5c, 0xe3, 0x16, 0x3e, 0x24, 0xa5, 0x0c, 0xbe,
  0xb0, 0xc1, 0x19, 0x3e, 0x69, 0x80, 0x03, 0xbf, 0x0c, 0x75, 0x2d, 0x3e,
  0x2d, 0x7f, 0xa3, 0xbe, 0xe3, 0x43, 0xac, 0xbe, 0xd8, 0x14, 0xb2, 0x3e,
  0x65, 0xee, 0x6d, 0xbc, 0xf5, 0x1c, 0xb8, 0x3d, 0x7e, 0xc2, 0x9d, 0xbe,
  0xf5, 0x3d, 0x59, 0xbe, 0x69, 0x23, 0xaf, 0x3e, 0x46, 0x71, 0x73, 0x3d,
  0x13, 0x79, 0x9d, 0x3d, 0x5b, 0x18, 0x21, 0x3e, 0x60, 0x23, 0x98, 0x3b,
  0x6f, 0xb1, 0x90, 0x3c, 0x2b, 0x60, 0x7b, 0xbe, 0xa1, 0x5b, 0x3c, 0x3d,
  0x73, 0xda, 0x63, 0xbd, 0x99, 0x7a, 0x65, 0xbd, 0x3b, 0x0e, 0xbe, 0xbd,
  0xa5, 0x29, 0xca, 0x3e, 0x8c, 0xc2, 0xa1, 0x3d, 0x75, 0xe0, 0x48, 0xbe,
  0xd7, 0x35, 0x8d, 0xbd, 0x48, 0x18, 0x0d, 0x3d, 0xb0, 0x51, 0x1c, 0xbe,
  0x4b, 0x83, 0x14, 0xbe, 0xe4, 0x04, 0xa2, 0xbe, 0x92, 0x90, 0xeb, 0x3d,
  0x25, 0x23, 0x9c, 0x3d, 0x52, 0xca, 0xa2, 0xbe, 0xf9, 0x51, 0xb0, 0xbd,
  0x1c, 0x35, 0x9e, 0x3e, 0xcb, 0x43, 0xad, 0x3e, 0xee, 0xb0, 0xee, 0x3c,
  0x96, 0x93, 0x84, 0xbe, 0x19, 0x1b, 0x2e, 0x3e, 0x8c, 0x78, 0x93, 0x3d,
  0x8d, 0x0a, 0xb2, 0xbe, 0xdb, 0x97, 0x0a, 0xbe, 0xcb, 0x1e, 0xae, 0x3e,
  0x10, 0x08, 0x89, 0xbe, 0xb6, 0x96, 0x84, 0x3d, 0x2f, 0x31, 0xb3, 0xbd,
  0x46, 0xdd, 0x8a, 0x3e, 0x5f, 0x35, 0x83, 0x3e, 0x3b, 0x17, 0x9d, 0xbe,
  0x01, 0x66, 0xb7, 0xbe, 0x3c, 0x4c, 0xa6, 0x3e, 0xdc, 0x87, 0x83, 0xbe,
  0xa1, 0x5a, 0xd4, 0xbe, 0x27, 0x78, 0xe2, 0xbe, 0xf9, 0x8d, 0xcc, 0x3d,
  0xd4, 0xf5, 0xa6, 0x3e, 0x97, 0x5f, 0x8f, 0xbd, 0x41, 0xd1, 0x63, 0xbc,
  0xe6, 0x6a, 0xe6, 0x3e, 0xd2, 0x1e, 0x43, 0x3e, 0x50, 0x37, 0x02, 0xbf,
  0xdb, 0x10, 0x23, 0xbf, 0x75, 0xc0, 0x81, 0x3e, 0xf3, 0x8d, 0x2f, 0xbd,
  0x71, 0x27, 0x4a, 0xbe, 0x07, 0x28, 0x7b, 0x3b, 0x4d, 0x0a, 0x81, 0x3e,
  0x1a, 0xe0, 0xe2, 0x3d, 0xb7, 0x94, 0x38, 0x3b, 0x5d, 0xa0, 0xa0, 0xbe,
  0xac, 0xe3, 0x61, 0xbe, 0xda, 0x6d, 0x63, 0xbe, 0x9a, 0x5a, 0xad, 0x3d,
  0xff, 0x28, 0x9b, 0x3c, 0x70, 0x73, 0x16, 0x3f, 0x36, 0xb7, 0xe6, 0xbd,
  0x86, 0xff, 0x1a, 0xbd, 0x13, 0xe2, 0xa9, 0xbe, 0xf0, 0xd7, 0x0b, 0xbd,
  0x8e, 0xc0, 0x80, 0xbe, 0x99, 0x7c, 0x8a, 0x3d, 0xc6, 0x5b, 0x44, 0xbd,
  0x1d, 0x71, 0x49, 0x3e, 0xb5, 0x63, 0xef, 0x3e, 0x7b, 0x1e, 0x68, 0x3d,
  0x36, 0x30, 0x88, 0x3e, 0xf9, 0x9b, 0x73, 0xbe, 0xe8, 0x5f, 0xd2, 0xbd,
  0xc5, 0x57, 0xdc, 0xbd, 0x98, 0xa6, 0xa7, 0xbd, 0xf8, 0xaa, 0xf1, 0x3c,
  0x55, 0x73, 0x17, 0x3c, 0x23, 0x4f, 0xbb, 0x3b, 0x96, 0x46, 0x39, 0xbe,
  0x5e, 0xa1, 0x4b, 0xbe, 0x9d, 0x37, 0xba, 0x3d, 0xff, 0xa9, 0x4e, 0xbe,
  0x11, 0x0b, 0x23, 0xbe, 0x83, 0x17, 0x25, 0x3e, 0xa1, 0x25, 0x14, 0x3e,
  0x87, 0x51, 0x3e, 0xbe, 0xff, 0xb9, 0x9e, 0x3d, 0x93, 0x3e, 0x25, 0xbd,
  0x4b, 0xb2, 0x6f, 0xbd, 0x46, 0x5b, 0x30, 0xbe, 0x2a, 0xcf, 0x14, 0xbe,
  0x2e, 0xb2, 0xe6, 0x3d, 0xc3, 0x24, 0xc1, 0x38, 0xcc, 0x17, 0x3e, 0x3e,
  0x63, 0x4c, 0xc6, 0x3b, 0x83, 0x20, 0x38, 0xbd, 0xbb, 0x16, 0xcf, 0x3d,
  0xd8, 0xde, 0xe7, 0xbd, 0x95, 0x3b, 0xba, 0xbd, 0xbd, 0xb4, 0x3d, 0xbc,
  0x41, 0x0e, 0x02, 0xbf, 0x5e, 0x1d, 0xae, 0xbe, 0xd7, 0xe0, 0xae, 0xbe,
  0xb3, 0xbd, 0xeb, 0xbe, 0x63, 0x79, 0xcb, 0xbe, 0x3a, 0xf0, 0xf5, 0xbd,
  0x5e, 0x98, 0x20, 0x3e, 0xb6, 0xae, 0xa0, 0xbe, 0x3d, 0x56, 0xd9, 0xbe,
  0xed, 0x7e, 0xd4, 0xbd, 0x61, 0x89, 0xb3, 0xbd, 0xc6, 0x5c, 0x03, 0x3f,
  0x6f, 0xeb, 0x9a, 0xbe, 0x39, 0x7d, 0x9d, 0xbd, 0x2b, 0xc0, 0xa0, 0xbd,
  0x51, 0xdd, 0x0d, 0x3d, 0x14, 0xed, 0xfa, 0xbd, 0xb5, 0x43, 0x8a, 0x3e,
  0xd5, 0xe6, 0xc6, 0x3e, 0x46, 0x33, 0x91, 0x3e, 0xcc, 0x45, 0x14, 0xbe,
  0x4c, 0x22, 0x1a, 0xbc, 0xf5, 0x33, 0x9c, 0xbd, 0x0f, 0xd0, 0xe5, 0x3e,
  0x5f, 0xc4, 0x50, 0x3d, 0x34, 0xe9, 0x18, 0xbe, 0x57, 0x29, 0x6e, 0xbd,
  0xd2, 0xb0, 0xe0, 0x3c, 0xe2, 0xfa, 0x46, 0x3d, 0xfc, 0x1a, 0x4d, 0x3c,
  0x28, 0xad, 0x55, 0xbd, 0xc6, 0xc4, 0x8d, 0xbd, 0xd7, 0xab, 0x1e, 0x3e,
  0x12, 0xdf, 0x0c, 0xbe, 0x53, 0xbe, 0xf6, 0xbc, 0x63, 0x26, 0x25, 0xbd,
  0x69, 0x73, 0x6a, 0xbe, 0xbe, 0xeb, 0x96, 0x3e, 0xb2, 0xb4, 0x70, 0xbe,
  0x66, 0x85, 0x6f, 0x3d, 0x6a, 0x05, 0x17, 0xbe, 0x70, 0xe4, 0x87, 0xbe,
  0x61, 0xba, 0xc1, 0xbd, 0x2c, 0x43, 0x3e, 0x3e, 0xa9, 0x19, 0x99, 0xbd,
  0x7d, 0x3e, 0x00, 0x3f, 0x6f, 0xf4, 0x7d, 0xbe, 0x40, 0x84, 0xe9, 0x3d,
  0x50, 0x7c, 0x28, 0xbd, 0xdf, 0x27, 0xab, 0x3d, 0xf1, 0x86, 0x9a, 0xbc,
  0xb3, 0x17, 0xb3, 0x3d, 0x61, 0xc6, 0xaf, 0x3c, 0x34, 0xac, 0xf8, 0x3d,
  0x3e, 0x11, 0x84, 0xbe, 0xd9, 0xb1, 0xfb, 0x3e, 0x4b, 0xf7, 0x1c, 0x3e,
  0x40, 0x5e, 0x95, 0xbd, 0xc7, 0x28, 0x39, 0xbb, 0xa4, 0x27, 0x24, 0x3e,
  0x87, 0x4e, 0x55, 0xbe, 0x83, 0xee, 0x91, 0x3e, 0x93, 0x4f, 0x8b, 0xbe,
  0x0c, 0x8e, 0x81, 0x3d, 0xf6, 0x66, 0x2e, 0xbe, 0x31, 0x29, 0x33, 0x3e,
  0x7f, 0x83, 0x98, 0x3e, 0x6e, 0x7f, 0x05, 0x3f, 0x46, 0xbb, 0xc4, 0x3e,
  0xb6, 0xee, 0xd0, 0xbd, 0x68, 0xa9, 0x05, 0xbd, 0xec, 0xe6, 0xb7, 0x3d,
  0xb4, 0xf4, 0xf8, 0xbc, 0xf2, 0x85, 0x1d, 0xbe, 0xa3, 0xcf, 0xf7, 0xbd,
  0xd0, 0xa2, 0x10, 0x3e, 0x82, 0x77, 0x5f, 0x3a, 0x54, 0x23, 0x97, 0xbd,
  0xa4, 0x01, 0xdc, 0xbc, 0x75, 0x00, 0x7b, 0xbe, 0x41, 0x4c, 0xed, 0x3c,
  0xbc, 0x24, 0xad, 0xbd, 0x39, 0x44, 0x17, 0xbe, 0x05, 0xde, 0x2e, 0x3e,
  0x33, 0x67, 0x39, 0xbc, 0x4e, 0xff, 0x0e, 0xbd, 0xe9, 0xcc, 0xbc, 0xbc,
  0x65, 0x3d, 0x60, 0xbe, 0xce, 0x8e, 0x5c, 0x3e, 0x1c, 0x57, 0x84, 0xbd,
  0x6b, 0x25, 0xc0, 0x3a, 0x54, 0x98, 0x25, 0x3e, 0x3b, 0x99, 0x38, 0xbd,
  0x57, 0xfa, 0xc1, 0xbd, 0x87, 0xe0, 0x3d, 0xbc, 0x7a, 0x5b, 0xbe, 0xbd,
  0x0a, 0xdf, 0xff, 0xff, 0x10, 0x00, 0x00, 0x00, 0x08, 0x00, 0x00, 0x00,
  0x1c, 0x00, 0x00, 0x00, 0x38, 0x00, 0x00, 0x00, 0x04, 0x00, 0x00, 0x00,
  0x10, 0x00, 0x00, 0x00, 0x04, 0x00, 0x00, 0x00, 0x01, 0x00, 0x00, 0x00,
  0x08, 0x00, 0x00, 0x00, 0x1a, 0x00, 0x00, 0x00, 0x73, 0x65, 0x71, 0x75,
  0x65, 0x6e, 0x74, 0x69, 0x61, 0x6c, 0x2f, 0x63, 0x6f, 0x6e, 0x76, 0x32,
  0x64, 0x5f, 0x31, 0x2f, 0x43, 0x6f, 0x6e, 0x76, 0x32, 0x44, 0x00, 0x00,
  0x04, 0xdf, 0xff, 0xff, 0xfa, 0xdf, 0xff, 0xff, 0x04, 0x00, 0x00, 0x00,
  0x80, 0x01, 0x00, 0x00, 0x50, 0x81, 0xd0, 0xbe, 0x4a, 0x43, 0x8d, 0xbd,
  0x2f, 0x9d, 0x15, 0xbd, 0x62, 0x5f, 0xe4, 0x3e, 0xfa, 0xee, 0xce, 0xbd,
  0x54, 0x16, 0xc3, 0x3d, 0xd0, 0x99, 0x11, 0x3f, 0x38, 0xd7, 0xe9, 0xbc,
  0xfe, 0x5d, 0x2a, 0xbd, 0x27, 0x1f, 0x7a, 0x3d, 0x76, 0xc0, 0xba, 0x3d,
  0x48, 0xc8, 0xef, 0xbd, 0xed, 0x1d, 0xc2, 0x3e, 0xec, 0xd9, 0xa1, 0x3e,
  0x1a, 0x12, 0x8e, 0xbd, 0xe6, 0x8f, 0x2a, 0xbe, 0xdc, 0x95, 0x03, 0x3a,
  0x07, 0xa9, 0x4d, 0xbe, 0xb3, 0x77, 0x68, 0x3d, 0x47, 0x22, 0xaf, 0xbe,
  0xe3, 0x73, 0x82, 0x3d, 0x0f, 0x6f, 0x7a, 0xbe, 0x8e, 0xb7, 0x22, 0xbe,
  0x3a, 0xbc, 0x28, 0x3d, 0x5c, 0x33, 0x77, 0x3e, 0xbc, 0xb7, 0xe7, 0x3e,
  0x15, 0x9c, 0xf0, 0xbd, 0x09, 0x75, 0x28, 0x3e, 0x4e, 0xe2, 0x1c, 0xbd,
  0xf6, 0x6c, 0x82, 0x3d, 0x6a, 0x89, 0x5b, 0x3d, 0x4c, 0x50, 0xf9, 0xbe,
  0x20, 0x6f, 0x2c, 0xbe, 0xea, 0xa6, 0xa6, 0xbd, 0x89, 0xb2, 0x49, 0xbe,
  0xa6, 0x47, 0xac, 0x3d, 0x39, 0x50, 0x4d, 0x3d, 0x73, 0x95, 0x15, 0xbd,
  0x14, 0x3c, 0xbf, 0xbc, 0xee, 0xd9, 0x52, 0x3e, 0x6a, 0x2a, 0xff, 0xbe,
  0x94, 0xfa, 0xcc, 0x3d, 0xf0, 0x5b, 0xdf, 0xbd, 0xfc, 0x64, 0x94, 0xbd,
  0x89, 0x2b, 0x42, 0xbe, 0x0b, 0x20, 0x62, 0xbe, 0x42, 0xdb, 0x08, 0x3f,
  0x1b, 0x7a, 0x45, 0x3d, 0xdd, 0x5e, 0x48, 0xbc, 0xaf, 0x87, 0x17, 0xbd,
  0xfd, 0x31, 0x0b, 0x3e, 0x4a, 0xa2, 0x62, 0xbe, 0x83, 0xc0, 0x89, 0xbe,
  0xf1, 0x46, 0x7e, 0xbe, 0xa1, 0x17, 0x34, 0x3e, 0xc7, 0x28, 0x89, 0xbe,
  0x8e, 0xdc, 0x33, 0xbd, 0xc0, 0x63, 0xad, 0x3d, 0x4e, 0x4c, 0xe9, 0x3e,
  0xfa, 0xe6, 0xa7, 0x3c, 0x55, 0x6a, 0x2e, 0xbe, 0xdb, 0xe1, 0x28, 0xbd,
  0xb5, 0x8d, 0x85, 0xbd, 0xfe, 0x01, 0x9a, 0xbe, 0xea, 0x40, 0x54, 0x3c,
  0x32, 0x09, 0x02, 0xbe, 0x7a, 0xfd, 0x8b, 0xbe, 0x03, 0xea, 0x20, 0xbc,
  0x0d, 0x25, 0x16, 0xbe, 0x7a, 0x63, 0x4f, 0xbe, 0xd1, 0x45, 0x60, 0xbd,
  0x25, 0x69, 0xab, 0xbd, 0x5b, 0x81, 0x4d, 0x3b, 0x36, 0x0b, 0x01, 0x3d,
  0x39, 0x8a, 0xad, 0xbd, 0xa6, 0x65, 0x51, 0xbd, 0x82, 0xe1, 0x84, 0xbc,
  0xfa, 0xa1, 0xd0, 0x3d, 0x54, 0xc8, 0xb9, 0xbd, 0xa9, 0xbe, 0x50, 0xbc,
  0x9a, 0x35, 0xba, 0x3c, 0x54, 0x8d, 0xc1, 0xbd, 0xad, 0xcf, 0x44, 0x3c,
  0xaf, 0x85, 0xaf, 0x3d, 0xa4, 0x3f, 0x99, 0x3e, 0x14, 0x82, 0x66, 0x3e,
  0x15, 0x67, 0x82, 0xbe, 0x32, 0x59, 0x6d, 0xbe, 0x10, 0x4a, 0x88, 0x3d,
  0x96, 0x4d, 0xfe, 0xbe, 0x5d, 0xad, 0x76, 0xbc, 0xd6, 0x6b, 0xa8, 0xbe,
  0x7f, 0x7c, 0x7f, 0x3d, 0xb9, 0x65, 0xb0, 0x3d, 0xf6, 0xa1, 0xf2, 0xbc,
  0x97, 0xa2, 0xe8, 0x3e, 0xe2, 0xe0, 0xff, 0xff, 0x10, 0x00, 0x00, 0x00,
  0x07, 0x00, 0x00, 0x00, 0x1c, 0x00, 0x00, 0x00, 0x38, 0x00, 0x00, 0x00,
  0x04, 0x00, 0x00, 0x00, 0x08, 0x00, 0x00, 0x00, 0x04, 0x00, 0x00, 0x00,
  0x03, 0x00, 0x00, 0x00, 0x01, 0x00, 0x00, 0x00, 0x18, 0x00, 0x00, 0x00,
  0x73, 0x65, 0x71, 0x75, 0x65, 0x6e, 0x74, 0x69, 0x61, 0x6c, 0x2f, 0x63,
  0x6f, 0x6e, 0x76, 0x32, 0x64, 0x2f, 0x43, 0x6f, 0x6e, 0x76, 0x32, 0x44,
  0x00, 0x00, 0x00, 0x00, 0xdc, 0xe0, 0xff, 0xff, 0xd2, 0xe1, 0xff, 0xff,
  0x04, 0x00, 0x00, 0x00, 0xc0, 0x00, 0x00, 0x00, 0x62, 0xd3, 0x49, 0xbf,
  0x0e, 0xc1, 0x48, 0xbd, 0xba, 0xb3, 0x5d, 0xbf, 0x86, 0x24, 0x94, 0xbd,
  0xa6, 0x92, 0x1f, 0xbf, 0x60, 0x1c, 0x4c, 0xbe, 0x4e, 0xa8, 0xbf, 0xbe,
  0x4b, 0x97, 0x94, 0xbe, 0xca, 0x82, 0x14, 0xbd, 0x1f, 0x38, 0xe3, 0x3d,
  0x4f, 0x15, 0x8b, 0x3e, 0xe6, 0xc4, 0x58, 0xbf, 0x57, 0x85, 0x3e, 0xbe,
  0xd9, 0xf6, 0xbd, 0xbf, 0xdb, 0x5b, 0x99, 0xbe, 0xcb, 0x41, 0xb0, 0xbe,
  0xed, 0x7d, 0xd7, 0xbe, 0xfc, 0x81, 0x13, 0xbd, 0x33, 0x84, 0x7f, 0xbe,
  0x31, 0x99, 0xbd, 0xbe, 0x13, 0x89, 0x8c, 0x3d, 0x19, 0xd1, 0x55, 0x3d,
  0x1c, 0xe2, 0x6b, 0x3d, 0x4f, 0xb8, 0xac, 0xbd, 0xc7, 0xfb, 0xb0, 0xbe,
  0x54, 0xf6, 0xbd, 0x3d, 0xcc, 0x0e, 0x19, 0x3e, 0x4b, 0x84, 0x3c, 0x3e,
  0x2e, 0x26, 0x50, 0xbe, 0x95, 0xbb, 0x9e, 0xbe, 0xf0, 0x7c, 0x3e, 0x3d,
  0x1a, 0xbf, 0x48, 0x3b, 0xc6, 0xdb, 0x78, 0xbe, 0xce, 0xb9, 0x67, 0xbb,
  0x20, 0xbd, 0x98, 0xbe, 0xea, 0x18, 0x32, 0xbe, 0x84, 0x22, 0xe2, 0x3d,
  0x51, 0xe4, 0x8a, 0xbd, 0xb1, 0x65, 0x89, 0x3b, 0xcb, 0x5a, 0x75, 0xbe,
  0xfd, 0xf3, 0x4a, 0xbe, 0x6c, 0xe2, 0x21, 0x3e, 0xb8, 0xd5, 0xbe, 0x3d,
  0x49, 0x85, 0x99, 0x3e, 0xaa, 0xd6, 0x11, 0xbe, 0xc5, 0xda, 0x01, 0xbe,
  0xee, 0x98, 0x01, 0x3e, 0xd2, 0x3b, 0xcf, 0xbd, 0xfa, 0xe1, 0xff, 0xff,
  0x10, 0x00, 0x00, 0x00, 0x06, 0x00, 0x00, 0x00, 0x14, 0x00, 0x00, 0x00,
  0x30, 0x00, 0x00, 0x00, 0x02, 0x00, 0x00, 0x00, 0x03, 0x00, 0x00, 0x00,
  0x10, 0x00, 0x00, 0x00, 0x19, 0x00, 0x00, 0x00, 0x73, 0x65, 0x71, 0x75,
  0x65, 0x6e, 0x74, 0x69, 0x61, 0x6c, 0x2f, 0x64, 0x65, 0x6e, 0x73, 0x65,
  0x5f, 0x31, 0x2f, 0x4d, 0x61, 0x74, 0x4d, 0x75, 0x6c, 0x00, 0x00, 0x00,
  0xec, 0xe1, 0xff, 0xff, 0xe2, 0xe2, 0xff, 0xff, 0x04, 0x00, 0x00, 0x00,
  0x00, 0x1c, 0x00, 0x00, 0x62, 0xc8, 0x6c, 0xbe, 0xc5, 0x0f, 0x69, 0x3e,
  0x29, 0x9f, 0x7b, 0x3e, 0x73, 0xb0, 0x30, 0x3e, 0xc4, 0x78, 0x02, 0xbd,
  0x58, 0x63, 0x11, 0xbc, 0x37, 0xa7, 0xfb, 0xbd, 0xad, 0xd2, 0x89, 0xbe,
  0x36, 0x74, 0x36, 0xbe, 0x8f, 0x05, 0x8e, 0x3d, 0xfc, 0x01, 0xa0, 0xbd,
  0x9e, 0x78, 0xe6, 0xbe, 0x98, 0xaf, 0x39, 0x3e, 0x59, 0x62, 0xc5, 0xbb,
  0x59, 0x2b, 0x32, 0xbd, 0x94, 0x8b, 0x10, 0xbf, 0x59, 0xe8, 0xc3, 0xbd,
  0xe0, 0xb0, 0x35, 0xbd, 0x38, 0x66, 0x41, 0x3d, 0x1c, 0x8b, 0x94, 0xbd,
  0xc3, 0x40, 0x98, 0x3a, 0xb5, 0xa7, 0x33, 0x3d, 0x5a, 0xc3, 0x24, 0xbc,
  0x09, 0x9c, 0x20, 0xbe, 0x2f, 0x7e, 0x7d, 0xbe, 0x16, 0xa3, 0xf8, 0x3d,
  0x94, 0x48, 0x03, 0x3d, 0x42, 0x35, 0x95, 0xbe, 0x30, 0xec, 0xac, 0xbd,
  0xb9, 0x77, 0x45, 0x3d, 0x02, 0x3b, 0xe2, 0xbd, 0x07, 0x96, 0xc5, 0xbe,
  0xa4, 0x50, 0xb9, 0xbe, 0x2c, 0x46, 0x24, 0xbc, 0x86, 0xbb, 0x82, 0xbd,
  0x9a, 0xa8, 0x3e, 0x3d, 0x48, 0x8c, 0x50, 0xbe, 0xe4, 0xff, 0x0a, 0x3e,
  0xc0, 0xa5, 0xa7, 0xbd, 0x39, 0x8e, 0x64, 0xbd, 0xe8, 0xd4, 0x69, 0xbe,
  0xdf, 0x26, 0x24, 0x3e, 0x91, 0x36, 0x70, 0xbe, 0xeb, 0x24, 0x38, 0xbe,
  0x2d, 0xac, 0xc6, 0xbc, 0xed, 0xf4, 0xaf, 0xbc, 0xaa, 0x1b, 0xce, 0x3c,
  0xd1, 0x8d, 0xc0, 0x3c, 0x9f, 0x56, 0x5d, 0xbe, 0xda, 0x89, 0x99, 0xbd,
  0x61, 0x1f, 0x56, 0x3d, 0x0d, 0xe9, 0x4d, 0xbd, 0xc7, 0x02, 0x18, 0xbe,
  0xe0, 0xb0, 0xf8, 0x3d, 0x26, 0xef, 0x86, 0x3c, 0xb9, 0x42, 0x03, 0x3c,
  0xa5, 0xe9, 0xb8, 0x3c, 0xaa, 0xcf, 0xd8, 0xbc, 0xdb, 0xb5, 0xfa, 0x3d,
  0x9a, 0x2d, 0x5a, 0xbe, 0x31, 0x5b, 0x98, 0xbe, 0xfb, 0xa9, 0x2a, 0x3e,
  0x4e, 0x32, 0xe1, 0x3b, 0xdb, 0x32, 0x3a, 0xbe, 0x30, 0x62, 0xce, 0xbe,
  0x04, 0x4c, 0x9e, 0x3d, 0xe0, 0x3d, 0x29, 0x3d, 0x8c, 0x9b, 0x03, 0x3d,
  0xf5, 0xb5, 0xec, 0xbd, 0x00, 0x27, 0x83, 0xbd, 0xae, 0x0c, 0x12, 0x3e,
  0xb4, 0xe1, 0x26, 0xbe, 0x15, 0xa6, 0xd6, 0xbd, 0x51, 0xcc, 0x27, 0xbd,
  0x8e, 0x86, 0x17, 0x3e, 0x3e, 0x6d, 0x88, 0xbe, 0xb3, 0xb0, 0x79, 0xbe,
  0x7e, 0xe7, 0xd0, 0xbc, 0x66, 0xc3, 0x6f, 0xbe, 0xc6, 0xe2, 0x23, 0xbe,
  0xb3, 0xd9, 0x06, 0xbf, 0x6f, 0x11, 0xf7, 0xbd, 0x38, 0xbb, 0x53, 0xbd,
  0xe5, 0xb8, 0x19, 0x3d, 0x5c, 0xb8, 0x22, 0xbd, 0x09, 0x83, 0xfa, 0xbd,
  0x3b, 0x34, 0x50, 0x3a, 0x98, 0xba, 0x2c, 0xbe, 0x71, 0x39, 0x94, 0xbc,
  0x2f, 0x0c, 0xc6, 0x3e, 0x2b, 0xfb, 0x4b, 0x3d, 0xae, 0xf9, 0x83, 0xbe,
  0xcf, 0x75, 0xc3, 0x3d, 0xd5, 0xc8, 0xe0, 0x3a, 0x32, 0x38, 0x36, 0xbd,
  0xe3, 0xa1, 0x4f, 0xbe, 0x4a, 0xb7, 0x8b, 0xbe, 0x6f, 0x96, 0x57, 0xbe,
  0x8c, 0x64, 0x25, 0x3e, 0xc6, 0x18, 0x99, 0x3b, 0x97, 0x9d, 0xa9, 0xbd,
  0x4d, 0x7c, 0x56, 0xbe, 0x17, 0x1a, 0x16, 0xbe, 0xd4, 0xad, 0x84, 0xbe,
  0x5b, 0x67, 0x34, 0xbe, 0x31, 0x82, 0x78, 0x3e, 0x19, 0x72, 0x08, 0xbf,
  0xaf, 0x2b, 0x1e, 0xbf, 0xe2, 0x8e, 0x8e, 0xbd, 0xea, 0xb6, 0xbd, 0xbd,
  0x97, 0x9c, 0x65, 0xbe, 0x34, 0x14, 0x87, 0xbe, 0xbe, 0xae, 0x1b, 0x3f,
  0x4c, 0x0c, 0x27, 0x3e, 0x01, 0x12, 0x88, 0x3e, 0xb6, 0x18, 0xcd, 0xbd,
  0x0a, 0x6a, 0xbd, 0xbe, 0xec, 0x49, 0xe6, 0xbd, 0xb2, 0x49, 0xe0, 0x3b,
  0xca, 0xe7, 0x91, 0xbe, 0xaf, 0xdc, 0x3d, 0x3e, 0x58, 0xb0, 0x4f, 0xbe,
  0x0e, 0x63, 0xe9, 0x3e, 0x37, 0xe7, 0x5b, 0x3c, 0xaa, 0xbf, 0xac, 0x3e,
  0x87, 0xc3, 0x08, 0xbf, 0x5b, 0xfd, 0xde, 0x3c, 0x46, 0x88, 0x9f, 0xbc,
  0x95, 0x89, 0x80, 0x3e, 0xaf, 0x85, 0x85, 0x3e, 0x62, 0xce, 0xc9, 0x3d,
  0x64, 0x70, 0xf7, 0xbc, 0xe0, 0xf3, 0x55, 0xbe, 0xb0, 0x6d, 0x78, 0xbe,
  0xfb, 0xaa, 0x67, 0xbf, 0xf6, 0x2c, 0x14, 0xbf, 0xb3, 0xeb, 0xaa, 0xbe,
  0xaa, 0xc6, 0xcf, 0xbe, 0x46, 0x7a, 0xf8, 0x3d, 0xc2, 0x89, 0x21, 0x3c,
  0x82, 0xfb, 0x02, 0x3e, 0xb3, 0xd6, 0x8d, 0xbd, 0x4a, 0xad, 0xf8, 0x3c,
  0xa0, 0x1c, 0x7e, 0xbe, 0xbc, 0x78, 0x8e, 0xbd, 0x69, 0x1b, 0xfb, 0x3e,
  0x9c, 0x16, 0x44, 0x3d, 0x96, 0x7d, 0xad, 0x3d, 0x19, 0x37, 0x2c, 0xbe,
  0x58, 0xf9, 0xbb, 0xbe, 0x7b, 0x50, 0x8b, 0xbe, 0x07, 0xf6, 0x04, 0xbf,
  0xe2, 0x6f, 0xb2, 0xbe, 0x22, 0x0e, 0xc0, 0xbe, 0x4b, 0x0f, 0x56, 0x3e,
  0x6d, 0x65, 0x1e, 0x3e, 0x26, 0x89, 0x85, 0x3c, 0x82, 0xc7, 0x3b, 0xbe,
  0x82, 0x4b, 0xa9, 0x3b, 0x05, 0x01, 0xb9, 0x3d, 0x89, 0xf6, 0x8c, 0x3c,
  0x12, 0x75, 0x9d, 0x3e, 0xdc, 0xac, 0x67, 0x3d, 0xce, 0x68, 0xb6, 0x3d,
  0x9b, 0x0d, 0xdb, 0xbd, 0x05, 0xb4, 0xd8, 0xbe, 0x51, 0x28, 0x75, 0xbe,
  0x62, 0x37, 0x8a, 0xbe, 0x8c, 0x2d, 0x73, 0xbe, 0x39, 0x6f, 0xd7, 0xbc,
  0xb0, 0xdf, 0xd2, 0x3e, 0xfe, 0xdd, 0xeb, 0x3c, 0x96, 0x78, 0xfa, 0x3d,
  0x4b, 0x59, 0x9f, 0xbe, 0x2e, 0x72, 0x3d, 0xbb, 0xcd, 0xc4, 0x9a, 0x3c,
  0xa4, 0x47, 0x51, 0x3d, 0x0e, 0xc3, 0x9d, 0x3e, 0x5c, 0x9f, 0x98, 0x3d,
  0x85, 0xc6, 0x8b, 0x3d, 0x58, 0x39, 0x81, 0xbe, 0xca, 0x17, 0x17, 0xbf,
  0xa8, 0xd9, 0x1a, 0x3c, 0x3b, 0x6b, 0x9c, 0xbe, 0xc4, 0x6f, 0x3d, 0xbe,
  0xe5, 0xbf, 0x4b, 0xbe, 0x6d, 0x38, 0xb9, 0x3e, 0x23, 0x87, 0x94, 0x3d,
  0x19, 0x38, 0x0b, 0x3e, 0xcf, 0x9a, 0xac, 0xbe, 0xe3, 0x59, 0xd8, 0x3b,
  0x70, 0x09, 0x26, 0x3d, 0x56, 0x04, 0x41, 0x3e, 0x32, 0xb7, 0x01, 0x3f,
  0xe4, 0xaf, 0x63, 0x3e, 0x87, 0xdd, 0xa5, 0xbe, 0x24, 0x03, 0x77, 0xbe,
  0xd0, 0x81, 0x82, 0xbf, 0xa3, 0xf9, 0x0f, 0xbf, 0xb1, 0x91, 0xe2, 0xbe,
  0x1b, 0x0b, 0xa3, 0xbe, 0x01, 0x36, 0x1e, 0xbe, 0xb1, 0xce, 0xcd, 0x3e,
  0x9a, 0x10, 0xe0, 0xbb, 0x9f, 0xe8, 0x4a, 0x3e, 0x00, 0xc2, 0x3c, 0xbf,
  0x54, 0x36, 0xab, 0x3c, 0x37, 0xe3, 0xab, 0xbd, 0xd0, 0xee, 0xfe, 0x3d,
  0xe5, 0xd7, 0xf9, 0x3c, 0x22, 0x2d, 0xa5, 0x3d, 0x9b, 0x31, 0xa0, 0x3d,
  0x88, 0x08, 0x8f, 0x3c, 0xaa, 0x04, 0xef, 0xbe, 0xc8, 0x21, 0x08, 0x3e,
  0x81, 0x1f, 0x11, 0xbf, 0x07, 0x48, 0x34, 0xbe, 0xff, 0xe8, 0x25, 0xbd,
  0x5b, 0x30, 0x66, 0x3d, 0x79, 0x0c, 0x45, 0xbb, 0x90, 0xdb, 0x8f, 0x3a,
  0x09, 0xdb, 0x8d, 0xbe, 0x28, 0x31, 0xdd, 0x3b, 0x55, 0xce, 0x49, 0xbe,
  0x13, 0x9e, 0x26, 0xbe, 0xd3, 0x34, 0x67, 0xbe, 0xaa, 0xb1, 0xc0, 0xbd,
  0xf3, 0x42, 0x05, 0x3e, 0xd0, 0x46, 0xf6, 0xbc, 0xb6, 0x0d, 0xc4, 0x3d,
  0x7a, 0xf5, 0x3a, 0x3d, 0x1e, 0x15, 0xb0, 0x3c, 0x88, 0xc1, 0x59, 0xbd,
  0xb5, 0xf5, 0xc5, 0x3d, 0x36, 0xdf, 0x02, 0x3e, 0xd4, 0xe1, 0x78, 0x3b,
  0xda, 0xdd, 0x36, 0xbd, 0x8a, 0x65, 0x63, 0xbc, 0x9f, 0x34, 0xa5, 0xbe,
  0x5a, 0x12, 0x99, 0x3d, 0xfe, 0x68, 0xb2, 0xbe, 0xa3, 0x1f, 0xdb, 0xbe,
  0x27, 0x56, 0x7d, 0xbe, 0x5a, 0x58, 0x83, 0x3e, 0xb6, 0x77, 0xe5, 0xbd,
  0xa6, 0x9b, 0x4d, 0x3e, 0x24, 0x69, 0xe5, 0x3c, 0xec, 0xcc, 0x88, 0x3c,
  0x23, 0xf0, 0xf9, 0x3c, 0xfd, 0x7d, 0xa4, 0x3e, 0x77, 0xef, 0xa9, 0x3e,
  0x3b, 0x14, 0x97, 0x3e, 0xd4, 0x9b, 0xf9, 0xbc, 0xc1, 0x57, 0xe2, 0x3d,
  0xb1, 0x67, 0x2a, 0xbf, 0x52, 0x4a, 0x69, 0xbd, 0x45, 0x2d, 0x0d, 0x3e,
  0x17, 0xe0, 0xc1, 0xbe, 0x97, 0xfd, 0xd3, 0x3d, 0x17, 0x4f, 0x06, 0x3e,
  0x2e, 0xb3, 0x30, 0x3f, 0x86, 0x9b, 0x64, 0x3c, 0x91, 0xe5, 0x81, 0x3d,
  0x29, 0xb6, 0xc1, 0x3e, 0x49, 0x6a, 0x85, 0x3d, 0x61, 0xa7, 0x46, 0x3b,
  0x2e, 0x84, 0xab, 0x3d, 0xa3, 0xd5, 0xa3, 0xbb, 0xc0, 0x2f, 0xa4, 0xbc,
  0xd8, 0x68, 0xbf, 0x3d, 0x4f, 0xa1, 0x19, 0xbf, 0x18, 0x34, 0x8b, 0xbc,
  0x1a, 0x81, 0x44, 0x3d, 0xa4, 0x30, 0x8b, 0xbe, 0x51, 0x36, 0x38, 0x3d,
  0xaf, 0x60, 0x3f, 0x3d, 0x82, 0x53, 0x3e, 0xbd, 0xce, 0xf9, 0x06, 0xbb,
  0x1e, 0x3c, 0xd6, 0xbd, 0xe7, 0x41, 0x0e, 0x3e, 0x44, 0x88, 0x0d, 0xbd,
  0x68, 0x4d, 0x1f, 0x3d, 0x70, 0xb0, 0x85, 0x3e, 0x80, 0xea, 0xea, 0xbd,
  0xd9, 0xf7, 0x90, 0xbd, 0x90, 0x50, 0x09, 0xbd, 0x21, 0xd0, 0xb2, 0xbe,
  0xaa, 0x9d, 0xd5, 0x3d, 0x79, 0x2e, 0x59, 0x3c, 0x86, 0x8e, 0xe9, 0xbe,
  0xf2, 0x9e, 0x56, 0x3e, 0x26, 0x32, 0xc6, 0x3d, 0x76, 0x8e, 0x51, 0xbe,
  0xcd, 0xab, 0x37, 0x3e, 0x2f, 0x22, 0x24, 0xbd, 0x65, 0x5b, 0xec, 0x3c,
  0xe6, 0xce, 0x36, 0xbd, 0xfb, 0x60, 0x27, 0xbe, 0x22, 0xdc, 0x49, 0xbe,
  0x85, 0xa1, 0x1b, 0xbd, 0x42, 0x5d, 0xd5, 0x3c, 0xcb, 0xf5, 0x43, 0x3e,
  0xc8, 0xe2, 0xcd, 0xbe, 0x8e, 0x7e, 0x6e, 0xbd, 0x14, 0xfc, 0x1f, 0xbe,
  0x51, 0x00, 0xcc, 0xbe, 0xe9, 0xec, 0xa0, 0xbd, 0xcd, 0x4e, 0xab, 0x3b,
  0x4b, 0x7c, 0x3f, 0x3d, 0x85, 0x33, 0x7b, 0x3d, 0xb7, 0x24, 0x21, 0xbd,
  0x1d, 0xd7, 0xe4, 0x3e, 0x67, 0xd9, 0x45, 0xbe, 0x82, 0x9f, 0x78, 0x3d,
  0xeb, 0x61, 0xb6, 0xbb, 0xec, 0x43, 0x31, 0x3e, 0x64, 0xcd, 0x47, 0xbd,
  0x41, 0x23, 0x83, 0x3d, 0x98, 0x7c, 0x43, 0xbe, 0x1c, 0x10, 0x28, 0x3d,
  0x9e, 0x63, 0xe1, 0x3e, 0x5d, 0x1e, 0x8a, 0x3c, 0x12, 0xf0, 0xdd, 0x3d,
  0x62, 0x27, 0xa2, 0x3d, 0xea, 0x6b, 0xfb, 0x3d, 0xd4, 0xb3, 0x6d, 0x3e,
  0xf3, 0xeb, 0x2a, 0xbc, 0x49, 0x7d, 0x85, 0x3e, 0x99, 0xe7, 0xed, 0x3d,
  0xde, 0x8f, 0x2f, 0x3e, 0x2c, 0x5a, 0xb1, 0xbc, 0x65, 0x74, 0x04, 0x3f,
  0xa5, 0x9b, 0x8d, 0x3d, 0xca, 0x92, 0x6d, 0x3e, 0x28, 0xc6, 0x40, 0xbe,
  0x75, 0x22, 0xfc, 0x3d, 0x60, 0xe1, 0x9b, 0xbe, 0x5a, 0x25, 0x25, 0xbe,
  0xde, 0x3c, 0x03, 0xbe, 0x20, 0xf0, 0x91, 0xbe, 0x38, 0x72, 0x1a, 0xbc,
  0xe5, 0xd8, 0xf0, 0x3c, 0xd1, 0xe7, 0x92, 0xbd, 0xe1, 0xfd, 0x74, 0xbe,
  0x36, 0x77, 0xd2, 0x3c, 0x7f, 0xa8, 0x80, 0x3e, 0x51, 0x42, 0x94, 0x3d,
  0x26, 0x3c, 0x36, 0xbd, 0xd1, 0x1a, 0x91, 0xbd, 0x61, 0x45, 0xdf, 0x3c,
  0x6e, 0xa8, 0x7f, 0xbc, 0x3f, 0x41, 0x57, 0xbe, 0x35, 0x61, 0x0f, 0xbb,
  0xa3, 0x67, 0xf9, 0xbc, 0xf3, 0x6e, 0x4e, 0x3e, 0x39, 0xca, 0x15, 0x3e,
  0xf9, 0x62, 0x05, 0xbe, 0xe1, 0x6c, 0xf0, 0xbd, 0xb0, 0x1d, 0x71, 0x3d,
  0xf4, 0xfd, 0x70, 0xbe, 0x11, 0x90, 0x01, 0xbe, 0x25, 0x7c, 0xed, 0xbc,
  0x31, 0x9e, 0x7d, 0x3c, 0x13, 0xd0, 0x5e, 0x3d, 0x0f, 0x95, 0x40, 0xbd,
  0xba, 0x9a, 0x21, 0x3c, 0xa8, 0x8b, 0x05, 0xbe, 0x0b, 0xf4, 0x04, 0xbc,
  0x64, 0x4a, 0x83, 0xbd, 0x7d, 0x16, 0x06, 0x3e, 0xba, 0x10, 0x54, 0x3d,
  0xb8, 0xe2, 0x6e, 0x3c, 0x9d, 0x4a, 0x42, 0xbe, 0x73, 0xad, 0xbf, 0xbd,
  0x40, 0xc4, 0x72, 0x3d, 0xe5, 0x1d, 0x16, 0xbd, 0x80, 0x21, 0xd2, 0xbd,
  0x3e, 0x49, 0x2b, 0xbd, 0x72, 0x7b, 0x2e, 0xbe, 0xd4, 0x00, 0x24, 0xbe,
  0x9b, 0x96, 0x3b, 0xbe, 0x6c, 0xaa, 0x6a, 0xbd, 0x00, 0x15, 0x57, 0xbe,
  0xb4, 0xdc, 0x35, 0xbd, 0xdf, 0xf2, 0x78, 0xbe, 0x19, 0xb4, 0x7a, 0xbe,
  0x7f, 0xca, 0x2d, 0xbd, 0x59, 0x5d, 0x88, 0x3d, 0x12, 0x40, 0x15, 0xbe,
  0x73, 0x67, 0x5b, 0x3d, 0xb0, 0x7b, 0x86, 0xbe, 0x5f, 0x5a, 0x93, 0xbd,
  0xb9, 0x20, 0xf6, 0x3c, 0xd7, 0x62, 0xb1, 0xbd, 0x25, 0xe8, 0xf5, 0x3d,
  0x39, 0xc4, 0x23, 0x3d, 0xb0, 0x6b, 0xb7, 0xbd, 0x2c, 0x49, 0xde, 0xbd,
  0x0d, 0x99, 0xa4, 0xbd, 0xc7, 0x63, 0x47, 0x3e, 0x74, 0xf1, 0x12, 0xbe,
  0x2b, 0xb6, 0xb9, 0x3d, 0xf5, 0x24, 0xfc, 0x3a, 0xec, 0x68, 0xf0, 0xbc,
  0x1a, 0x96, 0xa8, 0x3d, 0xc7, 0xa5, 0xb0, 0x3d, 0x4f, 0x14, 0xf3, 0x3c,
  0x2b, 0x07, 0x26, 0x3c, 0xf7, 0x53, 0x80, 0xbe, 0x55, 0x6b, 0x41, 0x3e,
  0x1f, 0xff, 0x4e, 0xbe, 0x39, 0xa8, 0xd8, 0xbc, 0x8c, 0xb7, 0x99, 0x3d,
  0x77, 0x6c, 0x9a, 0xbd, 0xc2, 0xd5, 0x62, 0xbe, 0x21, 0x13, 0xd4, 0xbc,
  0x9b, 0x63, 0x3d, 0xbe, 0x96, 0xe5, 0x5a, 0xbe, 0xec, 0x34, 0x3b, 0xbe,
  0x55, 0x72, 0xcc, 0xbd, 0x23, 0x6b, 0x25, 0xbe, 0xfd, 0xbf, 0x04, 0x3e,
  0xe7, 0x42, 0x0f, 0xbd, 0x9f, 0xfa, 0x48, 0xbe, 0x75, 0x4e, 0xdb, 0x3d,
  0x93, 0xe9, 0x34, 0xbd, 0x61, 0x9b, 0x58, 0x3e, 0xe4, 0xaa, 0xae, 0xbd,
  0xe4, 0xe3, 0xa6, 0xbd, 0x82, 0x7b, 0x8b, 0x3d, 0x7d, 0x3b, 0x0f, 0xbc,
  0xa7, 0xa5, 0x6e, 0xbe, 0xb9, 0xea, 0x78, 0xbe, 0x11, 0xdd, 0x9c, 0xbc,
  0xe5, 0xec, 0x33, 0xbe, 0x3e, 0x35, 0x6d, 0x3c, 0x74, 0xc8, 0x09, 0xbe,
  0x95, 0xd2, 0x24, 0xbd, 0x87, 0x9b, 0xac, 0x3c, 0x44, 0x9a, 0x8f, 0xbe,
  0x04, 0x22, 0x88, 0xbd, 0x74, 0xf6, 0x26, 0xbc, 0xe9, 0x8f, 0x61, 0xbe,
  0xf9, 0x8c, 0x20, 0xbb, 0xa3, 0xdd, 0x89, 0xbd, 0xde, 0x64, 0xd8, 0xbc,
  0x57, 0xcd, 0xed, 0x3b, 0x86, 0x12, 0xb7, 0xbd, 0xbd, 0xcf, 0x69, 0x3e,
  0x78, 0xe7, 0x67, 0xbe, 0x27, 0x5d, 0x0c, 0x3e, 0x48, 0x65, 0x56, 0xbe,
  0xfb, 0x35, 0xa6, 0xbc, 0x8d, 0xb6, 0x83, 0x3e, 0x40, 0xe4, 0xbf, 0x3d,
  0x82, 0x57, 0xb0, 0xbe, 0x3c, 0x02, 0x00, 0x3e, 0x4f, 0x8b, 0x10, 0x3e,
  0x03, 0xad, 0x30, 0xbe, 0x37, 0x86, 0x00, 0x3e, 0xe3, 0xb8, 0x48, 0x3e,
  0x9b, 0xbe, 0x14, 0xbe, 0x12, 0x04, 0x6e, 0xbe, 0x9f, 0x56, 0xec, 0xbd,
  0xee, 0x17, 0xa5, 0x3d, 0x36, 0x2f, 0x2d, 0xbe, 0x2e, 0xde, 0x91, 0xbb,
  0x25, 0x7b, 0xad, 0xbd, 0x37, 0xcf, 0x67, 0xbe, 0x4c, 0x89, 0x41, 0x3e,
  0x30, 0x55, 0xce, 0xbd, 0xc6, 0x4b, 0x8a, 0xbe, 0x21, 0x1a, 0x97, 0xbe,
  0x44, 0xae, 0x89, 0x3b, 0x03, 0xb3, 0xdd, 0x3d, 0xed, 0xa5, 0x30, 0xbe,
  0x04, 0xba, 0x4e, 0x3e, 0x9f, 0xab, 0x11, 0x3e, 0x0d, 0x8e, 0xe6, 0xbd,
  0xee, 0xfb, 0x87, 0x3d, 0x44, 0x07, 0xe0, 0x3b, 0xdc, 0x1d, 0x07, 0xbf,
  0x7c, 0xad, 0xb8, 0x3d, 0xf0, 0xd7, 0xae, 0x3c, 0x77, 0x39, 0x0e, 0xbe,
  0xd0, 0x87, 0x9a, 0x3e, 0xb1, 0x60, 0xb2, 0xbc, 0xa3, 0x8b, 0x52, 0xbd,
  0xfd, 0x63, 0x8e, 0xbd, 0xa3, 0x4f, 0xc2, 0x3d, 0x70, 0x73, 0x12, 0xbd,
  0xa9, 0x68, 0x2b, 0xbe, 0xf3, 0x89, 0x88, 0xbd, 0x31, 0x8e, 0xce, 0x3d,
  0x95, 0x00, 0xee, 0xbd, 0x16, 0xf4, 0x2b, 0x3d, 0xdc, 0xb5, 0xb9, 0xbd,
  0xde, 0x98, 0x9f, 0xbe, 0xa3, 0x95, 0x86, 0x3d, 0x83, 0xc2, 0xbf, 0x3d,
  0x48, 0x55, 0x0f, 0xbe, 0x43, 0xaa, 0x80, 0x3e, 0xb5, 0x22, 0x2a, 0x3d,
  0x7c, 0xc4, 0x5b, 0xbd, 0xc9, 0x2c, 0xa0, 0xbe, 0x93, 0x3d, 0x42, 0x3d,
  0x7f, 0xdf, 0xf1, 0xbd, 0x39, 0x2f, 0x24, 0xbe, 0x23, 0xaf, 0xb8, 0x3c,
  0x76, 0x71, 0x2d, 0x3e, 0xd5, 0x1b, 0xb4, 0xbe, 0x1e, 0x47, 0xb2, 0xbd,
  0x84, 0x03, 0x78, 0xbe, 0x69, 0xe1, 0xeb, 0xbe, 0xe6, 0x8a, 0x4a, 0xbd,
  0x1d, 0x98, 0x0e, 0x3d, 0x01, 0xbb, 0xc3, 0xbd, 0x12, 0x38, 0xd2, 0xbc,
  0x5d, 0xce, 0x40, 0x3d, 0x5a, 0x10, 0x0f, 0xbe, 0x87, 0x2f, 0x76, 0x3c,
  0xc4, 0xd7, 0x5d, 0x3e, 0xc8, 0xf6, 0x31, 0xbe, 0x0d, 0xb7, 0x43, 0xbd,
  0x3d, 0xa1, 0x72, 0x3d, 0xbf, 0x29, 0x02, 0xbd, 0x09, 0x2a, 0xd0, 0xbe,
  0x17, 0xe3, 0x9a, 0x3e, 0x14, 0xc9, 0xb9, 0xbe, 0xa7, 0x10, 0xb8, 0xbe,
  0xfd, 0xe5, 0xb5, 0x3e, 0x26, 0x17, 0xf6, 0x3c, 0xb0, 0x2f, 0x2a, 0xbe,
  0x05, 0x97, 0x3f, 0xbe, 0x62, 0x5e, 0xef, 0xbd, 0x1b, 0x2e, 0xa1, 0xbe,
  0xf9, 0xe2, 0x54, 0xbe, 0x73, 0x7f, 0xb0, 0xbb, 0xc7, 0x85, 0x56, 0xbe,
  0xa1, 0xfd, 0xe2, 0xbe, 0x3e, 0x3e, 0xad, 0x3c, 0x0e, 0xa7, 0xc0, 0x3d,
  0x6e, 0xc1, 0x26, 0xbe, 0xac, 0x45, 0x9e, 0x3d, 0x42, 0xd9, 0xdb, 0xbe,
  0xd3, 0x3e, 0x3d, 0xbc, 0xff, 0x22, 0xa9, 0x3d, 0xfc, 0x41, 0xbd, 0x3d,
  0xd2, 0x29, 0xd5, 0xbd, 0xa2, 0xb1, 0x7e, 0xbe, 0xcf, 0xf7, 0x20, 0x3e,
  0xa9, 0x33, 0xea, 0xbe, 0x8b, 0x57, 0xc2, 0xbe, 0x08, 0x69, 0x65, 0x3e,
  0x74, 0x1d, 0x0e, 0xbe, 0xd4, 0x75, 0xe6, 0xbe, 0x42, 0xce, 0xaf, 0x3d,
  0x4d, 0x6e, 0x30, 0xbe, 0x75, 0xdb, 0xd6, 0xbe, 0x66, 0x7f, 0x0e, 0x3d,
  0xfb, 0x80, 0x0c, 0xbf, 0xb5, 0x70, 0xbf, 0xbe, 0x21, 0x0b, 0x99, 0xbe,
  0x1e, 0x48, 0x31, 0x3d, 0x79, 0xdb, 0x19, 0xbe, 0x2f, 0xb2, 0x0a, 0xbd,
  0x34, 0x49, 0x2b, 0x3e, 0x49, 0x9e, 0x11, 0x3e, 0x23, 0x88, 0x65, 0xbe,
  0xa8, 0xef, 0xff, 0x3d, 0x43, 0x7c, 0xc5, 0xbc, 0xf4, 0xfa, 0xfa, 0xbd,
  0x4e, 0x0c, 0x13, 0xbf, 0x04, 0xc8, 0x21, 0xbe, 0x8a, 0x79, 0xbd, 0xbe,
  0xbe, 0x33, 0xb5, 0x3d, 0xfc, 0xd3, 0x15, 0xbe, 0x74, 0x4e, 0x3d, 0xbe,
  0xca, 0x38, 0xa6, 0xbe, 0x50, 0x32, 0x02, 0x3e, 0xe4, 0xf7, 0xc7, 0xbd,
  0xe4, 0xaa, 0x1e, 0xbd, 0x83, 0xb0, 0x37, 0xbe, 0x75, 0xd2, 0x8e, 0x3e,
  0xab, 0xfd, 0x21, 0x3d, 0xed, 0xab, 0xa4, 0x3e, 0xcb, 0x9c, 0x09, 0x3e,
  0x8a, 0x95, 0xa6, 0x3e, 0xd8, 0xc5, 0x44, 0x3b, 0xec, 0x3a, 0x2f, 0x3e,
  0x9f, 0xda, 0x15, 0xbe, 0xff, 0x55, 0xa2, 0x3c, 0x7a, 0x84, 0xf9, 0xbc,
  0x19, 0x89, 0x2c, 0xbe, 0x02, 0x18, 0xcf, 0x3d, 0xf3, 0x96, 0x71, 0xbd,
  0xd1, 0xfb, 0xdc, 0x3e, 0xc1, 0x48, 0x4c, 0xbe, 0xc6, 0x89, 0x01, 0xbe,
  0xb8, 0x25, 0x97, 0x3e, 0x04, 0x9f, 0x92, 0x3e, 0xeb, 0xb7, 0x10, 0x3e,
  0xc6, 0x19, 0xc4, 0x3d, 0x23, 0x84, 0xbf, 0x3e, 0x2c, 0x4a, 0x44, 0x3e,
  0x67, 0x20, 0x5a, 0x3d, 0x78, 0xc2, 0x45, 0xbe, 0x38, 0x4a, 0xa4, 0xbd,
  0xe0, 0xf2, 0xbc, 0x3d, 0x7e, 0x58, 0xe3, 0xbd, 0xd8, 0x26, 0xeb, 0x3d,
  0x6f, 0xcf, 0x2b, 0xbe, 0x37, 0x65, 0x1b, 0xbe, 0x6b, 0x6f, 0x71, 0xbd,
  0xde, 0x8e, 0xf8, 0xbd, 0x0a, 0x69, 0x93, 0xbe, 0xbd, 0x48, 0xec, 0x3d,
  0xb6, 0xfd, 0xbf, 0xbd, 0x73, 0x3b, 0x32, 0xbb, 0x44, 0x4e, 0x9b, 0xbb,
  0xbb, 0x14, 0xcd, 0xbd, 0xda, 0x46, 0x3e, 0xbd, 0xc6, 0x4c, 0xb8, 0xbd,
  0x46, 0x34, 0x63, 0xbe, 0xfb, 0xe4, 0x76, 0x3d, 0x85, 0x59, 0x1d, 0xbc,
  0xf7, 0x37, 0x54, 0x3e, 0x22, 0x91, 0x35, 0xbe, 0x33, 0x13, 0xaf, 0x3c,
  0xcc, 0xea, 0xd3, 0x3d, 0xec, 0x42, 0xe2, 0xbd, 0xdc, 0xf1, 0xe8, 0x3d,
  0x36, 0xb2, 0xb3, 0x3d, 0x2d, 0xc2, 0x35, 0xbd, 0x38, 0x28, 0x89, 0xbe,
  0x2a, 0x22, 0x1f, 0x3e, 0x3a, 0xf3, 0x00, 0xbd, 0x4d, 0x35, 0xe8, 0x3d,
  0xe2, 0xf5, 0x6f, 0xbe, 0x65, 0x05, 0x5e, 0xbe, 0x1c, 0x94, 0x0d, 0x3e,
  0xae, 0x0c, 0xc3, 0xbd, 0x63, 0x28, 0x29, 0x3e, 0x6b, 0x7f, 0xcd, 0xbd,
  0x4e, 0x2e, 0x11, 0x3d, 0x9b, 0x4a, 0x18, 0x3c, 0xa8, 0xe6, 0x99, 0xbd,
  0x97, 0x8b, 0xb4, 0x3e, 0xe2, 0xdd, 0xd3, 0xbb, 0x8c, 0x5c, 0xa5, 0x3d,
  0x2b, 0x0a, 0x05, 0xbe, 0x10, 0xab, 0x97, 0x3e, 0x2d, 0xfb, 0xf2, 0xbd,
  0xdc, 0x7c, 0xbc, 0xbd, 0x28, 0xcb, 0x88, 0xbe, 0x46, 0x18, 0xa4, 0xbd,
  0x05, 0x3f, 0x12, 0x3e, 0x6e, 0xe9, 0x7a, 0xbe, 0x53, 0x39, 0xa0, 0x3e,
  0xc1, 0x5f, 0xf2, 0xbd, 0xb5, 0x00, 0x98, 0xbd, 0x14, 0xf0, 0x27, 0x3b,
  0xe8, 0xad, 0xd9, 0xbe, 0x20, 0xf0, 0xd9, 0x3e, 0x86, 0xfa, 0x48, 0x3d,
  0xa2, 0x39, 0xb3, 0xbd, 0x05, 0x8b, 0x61, 0x3e, 0x72, 0x93, 0xc9, 0x3e,
  0xe8, 0x37, 0xa3, 0xbc, 0x13, 0xa1, 0x03, 0xbe, 0xc0, 0x61, 0x77, 0xbe,
  0x0f, 0xb4, 0x4d, 0x3d, 0xfd, 0xda, 0xda, 0xbe, 0x40, 0xd7, 0x97, 0xbe,
  0xf6, 0x2d, 0xb4, 0xbe, 0xa5, 0x72, 0x88, 0x3e, 0x27, 0x99, 0x4f, 0xbd,
  0x21, 0x95, 0x3d, 0xbd, 0xdd, 0xa9, 0x05, 0x3e, 0x5f, 0x30, 0x61, 0x3e,
  0x32, 0xf1, 0x07, 0xbf, 0x38, 0xe0, 0x66, 0x3e, 0xfa, 0x7b, 0x28, 0x3e,
  0xea, 0x07, 0x43, 0xbe, 0x76, 0x59, 0xba, 0xbe, 0x7c, 0xa6, 0xdd, 0xbd,
  0xf9, 0x01, 0xdb, 0xbe, 0x1a, 0x92, 0x08, 0x3e, 0x6d, 0xa4, 0x9f, 0xbe,
  0x22, 0x36, 0xcc, 0xbe, 0xe4, 0xba, 0x80, 0xbe, 0xe7, 0xd8, 0x7f, 0x3c,
  0x29, 0x5b, 0x5e, 0xbe, 0x9b, 0xe2, 0x86, 0x3e, 0x76, 0x32, 0xf2, 0x3d,
  0xbf, 0xc7, 0xb0, 0x3d, 0x38, 0xe5, 0x31, 0x3d, 0xd3, 0x8e, 0xa3, 0x3e,
  0xf8, 0x64, 0x66, 0x3e, 0x83, 0x90, 0xbc, 0x3e, 0x4b, 0x1c, 0x49, 0xbe,
  0x78, 0xed, 0x57, 0x3e, 0x19, 0x65, 0xa6, 0xbe, 0xc6, 0x90, 0x49, 0x3c,
  0x95, 0x6a, 0xd6, 0x3d, 0x43, 0x14, 0xa0, 0x3d, 0x2c, 0xa2, 0x54, 0xbe,
  0xd4, 0xa9, 0x42, 0xbc, 0x8b, 0xea, 0x09, 0x3f, 0x72, 0x0d, 0x3e, 0xbd,
  0x12, 0x02, 0xd2, 0xbd, 0x3a, 0x80, 0x39, 0x3e, 0xa5, 0x13, 0x81, 0xbc,
  0x2f, 0x85, 0xe2, 0x3d, 0x55, 0xdf, 0xd4, 0x3d, 0xb8, 0xff, 0x3e, 0x3e,
  0x33, 0x51, 0xe5, 0x3d, 0xdd, 0x55, 0x6f, 0x3e, 0xe3, 0xb4, 0xb4, 0xbe,
  0xdb, 0x41, 0x2e, 0xbe, 0x0d, 0x49, 0x4d, 0xbd, 0x9b, 0xf1, 0xc9, 0xbc,
  0xfd, 0x36, 0x0e, 0x3a, 0x77, 0xa1, 0x4c, 0x3d, 0x83, 0x84, 0x8b, 0xbc,
  0x01, 0xd6, 0x1c, 0xbe, 0xdd, 0xff, 0x4e, 0xbe, 0x04, 0xb8, 0xa6, 0xbd,
  0x50, 0xbe, 0x31, 0x3d, 0xb7, 0x48, 0x8e, 0x3d, 0x2b, 0xb8, 0xfa, 0x3d,
  0xe8, 0x74, 0x7d, 0x3e, 0x01, 0xd9, 0x97, 0x3c, 0x5f, 0x20, 0x27, 0xbd,
  0x4c, 0x10, 0x67, 0xbe, 0x3e, 0x68, 0xa5, 0xbb, 0x81, 0x37, 0xeb, 0xbc,
  0x2f, 0x94, 0xc8, 0xbe, 0xdf, 0x9f, 0xda, 0xbd, 0xc3, 0x8e, 0x80, 0x3d,
  0x89, 0x6e, 0x61, 0xbd, 0x40, 0xb1, 0x65, 0x3d, 0x07, 0x70, 0x03, 0xbe,
  0x7c, 0x28, 0xbb, 0x3d, 0xf3, 0x18, 0x52, 0x3d, 0x73, 0x12, 0x2d, 0xbd,
  0x23, 0xba, 0xb6, 0x3d, 0xeb, 0xd4, 0x42, 0x3c, 0xf1, 0xdc, 0x19, 0x3e,
  0x6e, 0x7b, 0x9d, 0x3d, 0xa6, 0x64, 0x3e, 0xbe, 0x72, 0xcc, 0x68, 0xbe,
  0x65, 0xc2, 0xc9, 0x3d, 0xb4, 0x50, 0x23, 0xbe, 0x69, 0x72, 0x19, 0x3b,
  0x16, 0x68, 0x8c, 0xbd, 0x5f, 0x53, 0x89, 0xbc, 0x04, 0x20, 0x19, 0x3d,
  0x03, 0x88, 0x8b, 0xbd, 0xe8, 0x5f, 0x84, 0x3e, 0x8b, 0x5c, 0x22, 0xbe,
  0x2f, 0x93, 0xe9, 0xbd, 0x82, 0x5a, 0x2c, 0xbe, 0x46, 0x89, 0x00, 0x3f,
  0xec, 0xdc, 0x0c, 0x3e, 0x61, 0x8b, 0x35, 0x3d, 0xee, 0x71, 0xb6, 0xbd,
  0xf0, 0xb1, 0x05, 0xbd, 0xe6, 0x39, 0x50, 0x3e, 0xf8, 0x37, 0x12, 0xbc,
  0xe3, 0x00, 0x56, 0x3c, 0x91, 0x75, 0x98, 0xbd, 0xcd, 0x96, 0x5f, 0x3d,
  0x77, 0x68, 0x61, 0x3e, 0xf4, 0xf5, 0x68, 0xbe, 0x1a, 0x42, 0x47, 0x3e,
  0x28, 0xa2, 0x0e, 0x3e, 0xa3, 0x26, 0xbd, 0xbb, 0x3b, 0xbf, 0x15, 0x3e,
  0xd7, 0x50, 0xed, 0x3e, 0xe9, 0xa2, 0xa8, 0xbd, 0x96, 0x5e, 0xc8, 0x3d,
  0xdc, 0xa8, 0xd9, 0xbd, 0xf5, 0x4e, 0x3a, 0x3e, 0xde, 0x20, 0x64, 0xbe,
  0xe9, 0xae, 0x2f, 0x3d, 0xa9, 0xaa, 0x11, 0x3d, 0x35, 0x73, 0x95, 0xbd,
  0x84, 0x37, 0x63, 0x3c, 0xdd, 0xd9, 0x6c, 0xbe, 0x1f, 0x50, 0x20, 0xbe,
  0xbb, 0x23, 0x95, 0xbe, 0x7c, 0x14, 0x8b, 0xbd, 0x05, 0xdb, 0x88, 0x3d,
  0x63, 0x66, 0x20, 0xbe, 0x31, 0x2d, 0x1e, 0x3a, 0xcf, 0x72, 0xff, 0x3b,
  0xf1, 0x46, 0x4e, 0xbe, 0x5d, 0x0a, 0x3a, 0xbe, 0xb6, 0xbc, 0x0d, 0xbe,
  0x45, 0xaf, 0x6c, 0xbc, 0x58, 0xf2, 0x85, 0x3d, 0x43, 0x9d, 0x01, 0xbd,
  0x60, 0x80, 0x53, 0xbe, 0x32, 0xcb, 0xac, 0x3d, 0xca, 0x56, 0x75, 0xbc,
  0x88, 0xec, 0x5e, 0x3a, 0x6f, 0x79, 0xc7, 0xbd, 0x87, 0x80, 0x3e, 0xbe,
  0x95, 0xcf, 0x99, 0x3d, 0x1e, 0x2b, 0xb8, 0x3c, 0xe2, 0x92, 0xdb, 0xbd,
  0x05, 0x11, 0x82, 0x3d, 0xf2, 0xdd, 0xd5, 0x3d, 0xdb, 0x95, 0x23, 0xbe,
  0x75, 0x79, 0x36, 0xbe, 0xad, 0xe5, 0xf2, 0x3c, 0x86, 0x42, 0x37, 0xbe,
  0x28, 0x9f, 0x16, 0x3d, 0xaa, 0x72, 0x88, 0xbe, 0x9a, 0xda, 0x31, 0xbe,
  0x5f, 0x99, 0x90, 0xbe, 0x22, 0xb9, 0x6e, 0xbd, 0x17, 0x13, 0x67, 0xbe,
  0x26, 0x52, 0x16, 0x3d, 0x72, 0x24, 0x8f, 0xbc, 0x3c, 0xf1, 0xce, 0x3d,
  0x6c, 0x3f, 0x62, 0xbe, 0xca, 0x2b, 0x2d, 0xbd, 0x2e, 0xe9, 0x94, 0x3d,
  0x51, 0xb8, 0x5d, 0x3d, 0x47, 0x18, 0x64, 0xbe, 0x75, 0x84, 0x57, 0xbe,
  0x9b, 0x90, 0x31, 0x3d, 0x0c, 0x12, 0x9a, 0xbd, 0xec, 0xff, 0x8f, 0xbd,
  0xbc, 0x4c, 0x18, 0x3c, 0x4c, 0x5c, 0xd0, 0xbc, 0x45, 0x1c, 0x4b, 0xbd,
  0x6d, 0x9c, 0xd1, 0xbd, 0xa5, 0x1e, 0x21, 0xbe, 0x4d, 0x6d, 0xfc, 0x3d,
  0x53, 0x67, 0xa6, 0x3d, 0x24, 0x6e, 0xca, 0x3c, 0xaf, 0x25, 0x82, 0xbd,
  0xce, 0x1e, 0x9e, 0xbc, 0x16, 0x59, 0x71, 0x3d, 0x6d, 0xa3, 0x75, 0xbd,
  0x95, 0x4d, 0x34, 0xbe, 0x0d, 0xfa, 0x83, 0xbe, 0xbf, 0xa4, 0x15, 0xbe,
  0x5b, 0x3f, 0x75, 0xbe, 0x52, 0x5b, 0x98, 0xbd, 0xfe, 0xeb, 0x7c, 0xbe,
  0x3e, 0xbe, 0x6d, 0xbe, 0x26, 0x2f, 0x65, 0x3d, 0x7e, 0x86, 0x25, 0x3d,
  0x18, 0x5f, 0xfb, 0xbd, 0x6c, 0x12, 0x06, 0x3d, 0xbd, 0xa3, 0x1b, 0x3c,
  0x70, 0xaa, 0x86, 0xbd, 0x15, 0x20, 0xd4, 0xbc, 0xfc, 0x0e, 0x0d, 0xbe,
  0x99, 0x07, 0x8f, 0xbe, 0xc7, 0x16, 0x57, 0xbd, 0xe6, 0x34, 0x22, 0xbd,
  0x64, 0xbb, 0x8a, 0xbe, 0xa0, 0xfe, 0x26, 0x3c, 0x80, 0x72, 0xf6, 0x3d,
  0x35, 0x51, 0x0b, 0xbc, 0x53, 0xf9, 0xd3, 0x3d, 0xc5, 0xc7, 0x84, 0xbe,
  0x64, 0x98, 0xb7, 0xbd, 0xbb, 0xd0, 0x0c, 0x3e, 0xa2, 0xf3, 0x82, 0xbd,
  0x1a, 0x7b, 0xe6, 0xbd, 0x5f, 0xe1, 0xad, 0xbd, 0x95, 0xd1, 0xee, 0xbd,
  0xc5, 0x65, 0x45, 0xbd, 0xb5, 0x42, 0x77, 0xbd, 0xaa, 0xf9, 0x86, 0x3d,
  0xe8, 0xc1, 0x54, 0xbe, 0xab, 0x4a, 0x39, 0xbe, 0xe6, 0x2b, 0x70, 0xbd,
  0x8d, 0x3a, 0xed, 0xbd, 0x4c, 0x5e, 0x83, 0xbe, 0xca, 0x71, 0x1c, 0xbe,
  0x5c, 0x23, 0x3c, 0xbe, 0xcb, 0xdd, 0x43, 0xbe, 0xa1, 0x01, 0x8c, 0xbd,
  0x56, 0xe6, 0xaa, 0xbb, 0xea, 0xc2, 0x29, 0xbe, 0xe2, 0xb1, 0xf3, 0x3c,
  0x65, 0x92, 0xa4, 0xbd, 0x45, 0x7d, 0x4d, 0xbe, 0x41, 0x02, 0x2a, 0xbe,
  0xa0, 0x82, 0x03, 0x3e, 0xc7, 0xe5, 0xed, 0x3c, 0x01, 0xc0, 0x70, 0xbe,
  0x60, 0x7b, 0x88, 0xbd, 0x04, 0x82, 0xa7, 0xbd, 0xd8, 0x6b, 0x75, 0xbe,
  0xf2, 0x2a, 0x06, 0xbe, 0x6d, 0xad, 0xc1, 0xbe, 0x3b, 0x4c, 0x23, 0xbe,
  0x3c, 0xcf, 0xbd, 0xbc, 0x28, 0x6a, 0xf3, 0xbc, 0x6a, 0x66, 0x42, 0x3d,
  0x78, 0xf8, 0x94, 0x3d, 0x91, 0x9c, 0x14, 0x3e, 0xbb, 0xb3, 0xe8, 0xbd,
  0xf6, 0x57, 0x1d, 0xbe, 0x70, 0x76, 0x80, 0x3c, 0x60, 0x0e, 0xe4, 0xbd,
  0xa4, 0xa6, 0xf0, 0xba, 0xf1, 0x4d, 0x3a, 0x3e, 0xf3, 0xb9, 0x46, 0xbe,
  0x77, 0x90, 0xa9, 0xbd, 0xc6, 0xa8, 0xe8, 0x3c, 0x8e, 0x39, 0x21, 0xbe,
  0xd2, 0xa2, 0xbe, 0xbc, 0x7e, 0xa9, 0xf4, 0x3e, 0x20, 0x92, 0x0a, 0x3e,
  0x83, 0x5b, 0x31, 0xbe, 0xae, 0xbd, 0x22, 0x3e, 0xf0, 0x56, 0xa4, 0xbb,
  0xcd, 0x5d, 0xd6, 0xbd, 0xe1, 0x51, 0x8c, 0xbd, 0xdc, 0xc3, 0x56, 0xbe,
  0x25, 0x0e, 0xe2, 0xbc, 0x1a, 0x9d, 0xaf, 0x3c, 0x49, 0x3a, 0x94, 0x3d,
  0x1f, 0x9b, 0x5e, 0xbd, 0x25, 0x42, 0x0f, 0xbc, 0xfa, 0x80, 0xe8, 0x3d,
  0xda, 0x0b, 0x04, 0xbd, 0x87, 0xc4, 0xb8, 0x3b, 0x7a, 0x35, 0xe4, 0x3d,
  0x65, 0x3c, 0x2f, 0x3e, 0xcf, 0xf5, 0xe1, 0x3d, 0x02, 0x1d, 0xfc, 0xbd,
  0x8c, 0xd9, 0x1f, 0xbe, 0x00, 0x27, 0x59, 0xbe, 0xcb, 0x52, 0x84, 0xbe,
  0xe0, 0x26, 0x8f, 0xbc, 0x89, 0xe0, 0x7d, 0x3c, 0xec, 0x17, 0x29, 0x3d,
  0xd0, 0x25, 0xc1, 0xbd, 0x45, 0x54, 0x57, 0xbe, 0xed, 0x5d, 0x3f, 0xbe,
  0xb4, 0x1f, 0x2e, 0x3e, 0xc8, 0xb4, 0x2f, 0xbd, 0x41, 0xc6, 0x37, 0xbe,
  0x92, 0x66, 0xc2, 0x3e, 0xc7, 0xa9, 0xa2, 0x3d, 0xf3, 0x52, 0xcc, 0x3c,
  0x7d, 0x24, 0x07, 0x3c, 0xdf, 0xcd, 0x51, 0x3d, 0x42, 0x64, 0x44, 0xbe,
  0xbc, 0xfe, 0x2c, 0xbe, 0xb5, 0x91, 0xe6, 0xbd, 0x16, 0x1e, 0x32, 0xbe,
  0xd4, 0xe4, 0x32, 0x3d, 0x97, 0x3a, 0x53, 0x3e, 0xdd, 0xdc, 0x25, 0x3e,
  0x45, 0xcf, 0x23, 0x3e, 0x1d, 0xb5, 0x8a, 0x3d, 0x31, 0x94, 0xda, 0xbc,
  0xbf, 0xbf, 0xcd, 0x3c, 0x6e, 0x74, 0x4d, 0x3e, 0x28, 0x5f, 0xa6, 0xbd,
  0x8a, 0x07, 0x77, 0xbd, 0x13, 0x4b, 0x5f, 0xbe, 0xc4, 0xa2, 0xc9, 0xbd,
  0x06, 0x3f, 0x53, 0xbe, 0xc9, 0x62, 0x54, 0xbe, 0x6f, 0x64, 0x40, 0xbe,
  0x30, 0xb5, 0xca, 0x3d, 0x06, 0x60, 0xd5, 0x3d, 0xfb, 0xb5, 0x4a, 0x3e,
  0xe8, 0x19, 0xa9, 0xbd, 0xdd, 0xd5, 0xd6, 0x3d, 0x7b, 0x98, 0x2e, 0xbe,
  0xbe, 0x88, 0x44, 0xbe, 0xc4, 0xa1, 0x78, 0xbe, 0xe1, 0x45, 0x69, 0x3d,
  0x72, 0x71, 0x8d, 0xbe, 0x4c, 0x5c, 0x02, 0x3e, 0x38, 0x1e, 0x9c, 0xbc,
  0x6e, 0x9a, 0x0c, 0xbe, 0x4e, 0x5d, 0x77, 0x3d, 0x58, 0xec, 0xe9, 0xbe,
  0x2e, 0x04, 0xc5, 0xbd, 0x8c, 0xae, 0x4e, 0xbd, 0xe2, 0xa2, 0xbb, 0x3d,
  0x04, 0xf1, 0xe4, 0xbd, 0x76, 0xc6, 0x16, 0xbe, 0xd6, 0x57, 0x22, 0xbe,
  0x07, 0xf2, 0x98, 0xbc, 0xe7, 0x78, 0x30, 0xbe, 0x70, 0x14, 0x2d, 0xbd,
  0xa0, 0x9e, 0x0a, 0x3e, 0x24, 0x12, 0x71, 0xbd, 0xdd, 0x70, 0xb2, 0xbe,
  0xe9, 0x67, 0x8d, 0xbe, 0xf3, 0x81, 0x94, 0xbd, 0x0a, 0x18, 0xa6, 0xbd,
  0x96, 0x84, 0xb5, 0xbd, 0xe7, 0xd5, 0xd6, 0xbc, 0x80, 0x88, 0xa0, 0x3e,
  0x17, 0x5c, 0xa2, 0x3d, 0x60, 0x33, 0xb7, 0xbe, 0xe7, 0xfa, 0xce, 0xbe,
  0x0a, 0xb2, 0x77, 0xbe, 0x8d, 0x7e, 0xec, 0xbb, 0x20, 0x6d, 0x26, 0xbe,
  0x7d, 0xfb, 0x5f, 0x3e, 0xb1, 0x29, 0xe7, 0x3c, 0x4f, 0x2b, 0xc5, 0x3e,
  0x35, 0xf0, 0xa6, 0x3c, 0xba, 0x43, 0x83, 0x3e, 0x15, 0x48, 0xdc, 0xbe,
  0x19, 0x34, 0xad, 0x3c, 0x5c, 0x6a, 0x92, 0xbc, 0x69, 0xa5, 0xaa, 0xbc,
  0x42, 0xec, 0xb5, 0x3e, 0x5e, 0xda, 0x34, 0x3e, 0x0b, 0x90, 0x24, 0xbe,
  0xc2, 0x37, 0xc6, 0xbe, 0x51, 0xbd, 0xa8, 0xbe, 0xb7, 0x80, 0xd9, 0xbe,
  0xb3, 0x03, 0x9c, 0xbe, 0xd6, 0x10, 0x9b, 0xbe, 0x50, 0xab, 0xc7, 0xbe,
  0xa2, 0x87, 0x5e, 0x3e, 0x60, 0x5b, 0x36, 0x3d, 0xe6, 0x29, 0x30, 0x3e,
  0x05, 0xf2, 0xd2, 0x3b, 0x82, 0x64, 0x4c, 0x3c, 0xd7, 0x5c, 0x4e, 0xbe,
  0x11, 0x60, 0x47, 0xbe, 0xf6, 0x4e, 0xb2, 0x3e, 0x46, 0x8e, 0xf1, 0x3d,
  0xde, 0xfd, 0x39, 0x3e, 0x11, 0xd7, 0xe9, 0x3d, 0x46, 0x9f, 0xc4, 0xbe,
  0x3c, 0xfc, 0xa1, 0xbc, 0xe7, 0x20, 0x56, 0xbe, 0x88, 0x4d, 0x9f, 0xbe,
  0xe4, 0xb8, 0x95, 0xbe, 0x3e, 0x03, 0x63, 0x3e, 0xdb, 0x82, 0x36, 0x3b,
  0x03, 0xd1, 0x8e, 0x3d, 0x62, 0x20, 0xff, 0xbd, 0x4a, 0x11, 0xd2, 0x3c,
  0x97, 0x93, 0x30, 0xbd, 0xb6, 0xb2, 0x7f, 0xbd, 0x5a, 0x7a, 0xcc, 0x3e,
  0x92, 0x52, 0xb0, 0x3c, 0x14, 0x38, 0x35, 0x3e, 0x3b, 0x9c, 0x41, 0x3d,
  0xc2, 0x67, 0x83, 0xbe, 0x9b, 0xfa, 0x8f, 0x3d, 0x74, 0xb7, 0x03, 0xbe,
  0xb2, 0xf9, 0x7c, 0xbe, 0x33, 0x83, 0x14, 0xbe, 0x7a, 0xde, 0xbc, 0x3e,
  0x51, 0x94, 0x0c, 0x3e, 0x8b, 0xe5, 0x2c, 0x3c, 0x2f, 0x03, 0xb6, 0x3d,
  0x58, 0x09, 0xd5, 0x3c, 0x6b, 0x9a, 0x0f, 0xbd, 0x85, 0xaf, 0x55, 0xbd,
  0xb9, 0x59, 0xce, 0x3e, 0xd1, 0x8c, 0x1d, 0x3e, 0x1a, 0x1a, 0x88, 0x3d,
  0x8b, 0xa8, 0x5c, 0xbe, 0x84, 0x81, 0xde, 0xbe, 0xea, 0x9e, 0xf6, 0xbe,
  0x60, 0xeb, 0x91, 0xbd, 0x3c, 0x89, 0x68, 0xbe, 0x61, 0x45, 0xd1, 0xbe,
  0xa3, 0x3a, 0xfd, 0x3e, 0x05, 0xd7, 0x23, 0x3e, 0x6c, 0x4c, 0x40, 0x3d,
  0xac, 0xd7, 0x54, 0xbe, 0xbb, 0x58, 0x8c, 0x3c, 0xaf, 0xc9, 0xd0, 0xbd,
  0xc9, 0xd5, 0xcc, 0xbd, 0x02, 0xa2, 0xa6, 0x3e, 0xe2, 0x4f, 0x31, 0x3e,
  0xfc, 0x2e, 0x1d, 0xbd, 0x9a, 0x04, 0x3a, 0xbe, 0xea, 0x62, 0x04, 0xbf,
  0x1c, 0xae, 0x9e, 0xbe, 0x90, 0xf3, 0x97, 0xbe, 0xe5, 0x71, 0xac, 0xbe,
  0x3b, 0xbc, 0x07, 0xbf, 0x8f, 0x48, 0x00, 0x3f, 0x91, 0x60, 0xd2, 0x3d,
  0x42, 0x0f, 0xf6, 0x3d, 0xa1, 0x41, 0x8b, 0xbe, 0x48, 0x35, 0x2b, 0x3c,
  0x15, 0x0c, 0x09, 0xbe, 0x6a, 0x81, 0xef, 0x3d, 0xcd, 0xd8, 0xda, 0xbc,
  0x2f, 0xfc, 0xa0, 0xbc, 0xa5, 0x26, 0xfc, 0xbd, 0x2c, 0x91, 0x8b, 0xbc,
  0xd9, 0xf7, 0xb1, 0xbe, 0xa4, 0xce, 0x02, 0xbc, 0xa2, 0x33, 0xb4, 0xbe,
  0x4b, 0x22, 0xad, 0xbe, 0x6a, 0x2d, 0x0f, 0xbe, 0xbd, 0x48, 0xef, 0x3d,
  0x21, 0x93, 0xe1, 0xbd, 0x8c, 0x96, 0x91, 0x3d, 0xb1, 0x1a, 0x43, 0xbe,
  0xa7, 0x2e, 0xc5, 0x3c, 0x17, 0xda, 0x86, 0xbe, 0x80, 0x1d, 0x34, 0xbf,
  0x25, 0xfa, 0x30, 0xbe, 0x55, 0x44, 0x90, 0xbe, 0x62, 0x54, 0x19, 0xbb,
  0x44, 0xd0, 0x76, 0x3e, 0x9c, 0xbc, 0xbf, 0x3d, 0x59, 0x08, 0xa0, 0xbd,
  0xce, 0xaf, 0xcf, 0x3e, 0xcc, 0xe2, 0x60, 0x3c, 0x70, 0x4c, 0x96, 0xbe,
  0x12, 0x2d, 0xc3, 0xbe, 0x33, 0x82, 0x2f, 0x3e, 0xfd, 0x80, 0x86, 0xbe,
  0xf7, 0xe7, 0x24, 0x3e, 0xe4, 0x19, 0xb8, 0xbc, 0x4a, 0xb3, 0x21, 0x3e,
  0x45, 0x8e, 0xa4, 0x3b, 0xeb, 0xfc, 0x65, 0xbe, 0x00, 0xb0, 0xbb, 0xbd,
  0xcd, 0x46, 0x8a, 0xbe, 0x60, 0x6e, 0xf0, 0x3e, 0x6e, 0x0c, 0x6b, 0x3e,
  0x4b, 0x2a, 0x5a, 0xbe, 0x65, 0x08, 0xb9, 0x3e, 0xa9, 0x84, 0x8c, 0x3e,
  0x12, 0x24, 0xa2, 0x3d, 0x74, 0x4d, 0x0a, 0xbf, 0xda, 0x3e, 0xb1, 0xbe,
  0x3b, 0x2e, 0x8d, 0xbe, 0xa2, 0x72, 0x60, 0xbe, 0xe3, 0xf3, 0x7e, 0xbd,
  0x34, 0x93, 0xc6, 0xbd, 0x49, 0x67, 0x1c, 0xbe, 0xb1, 0xc5, 0x82, 0xbe,
  0x14, 0x0b, 0x63, 0xbe, 0x85, 0x66, 0xc1, 0xbd, 0xc5, 0x58, 0x4d, 0x3e,
  0xb5, 0x35, 0x5c, 0x3e, 0x43, 0x4b, 0x75, 0xbe, 0x2f, 0x56, 0x80, 0x3e,
  0x79, 0x89, 0xeb, 0x3e, 0x71, 0xe3, 0xcb, 0x3e, 0xef, 0xf0, 0xd7, 0xbe,
  0x5d, 0x97, 0x55, 0xbd, 0x7e, 0x43, 0x9c, 0xbd, 0xec, 0x0c, 0x4d, 0xbe,
  0xf2, 0x2e, 0x07, 0xbd, 0x14, 0xcb, 0x43, 0xbe, 0xc1, 0x77, 0xa2, 0xbe,
  0xe8, 0x72, 0xcc, 0xbe, 0x8e, 0x24, 0xa1, 0xbe, 0x0f, 0xf6, 0x1a, 0xbd,
  0xb6, 0x52, 0xdf, 0x3e, 0xd4, 0x1e, 0x83, 0x3e, 0x68, 0xd5, 0x4c, 0xbe,
  0x44, 0x92, 0x17, 0xbe, 0xd7, 0x76, 0x6e, 0x3e, 0xb2, 0x6d, 0x6b, 0x3d,
  0xc7, 0x02, 0xf0, 0xbe, 0xbd, 0xab, 0xb2, 0x3d, 0x75, 0x81, 0xc5, 0x3c,
  0x1f, 0xdb, 0x2a, 0xbc, 0x4e, 0xb0, 0x89, 0xbc, 0x47, 0x8f, 0x43, 0xbd,
  0x6d, 0xa0, 0x79, 0xbe, 0xe6, 0xde, 0xac, 0xbe, 0x12, 0x89, 0x95, 0xbe,
  0xb6, 0x54, 0xfe, 0xbd, 0x94, 0x5e, 0xcb, 0x3e, 0xc9, 0xe6, 0x5a, 0x3e,
  0xd1, 0x64, 0x9a, 0xbe, 0x6a, 0xbd, 0xa0, 0x3e, 0xd5, 0x6f, 0xcb, 0x3d,
  0x39, 0x74, 0xd0, 0x3d, 0x32, 0x4b, 0x06, 0xbf, 0xc7, 0x0c, 0x90, 0xbd,
  0xeb, 0x96, 0x14, 0xbe, 0x04, 0xd4, 0xe7, 0x3d, 0x44, 0xe1, 0x13, 0xbd,
  0x78, 0x7b, 0xbc, 0xbd, 0x6c, 0x3b, 0xa3, 0xbe, 0xce, 0x88, 0x3a, 0xbe,
  0xe4, 0x10, 0x5c, 0xbe, 0xf6, 0xbb, 0x62, 0xbc, 0xdd, 0x07, 0xa6, 0x3e,
  0xa6, 0x27, 0xd5, 0x3e, 0x51, 0x6b, 0xbf, 0xbe, 0x11, 0x30, 0xc6, 0x3e,
  0xab, 0x28, 0x8f, 0x3e, 0x5f, 0x1f, 0x42, 0x3e, 0xe8, 0xb1, 0xaf, 0xbe,
  0x41, 0x9d, 0xb1, 0x3d, 0xa3, 0xbe, 0x37, 0xbe, 0xc6, 0xf1, 0x5d, 0x3e,
  0xe7, 0x58, 0x3e, 0xbc, 0xa6, 0x1e, 0xa6, 0xbd, 0x17, 0x99, 0x9d, 0x3c,
  0x49, 0xc9, 0xbb, 0x3c, 0x09, 0xfd, 0x63, 0xbe, 0x8b, 0x23, 0x02, 0xbd,
  0x5d, 0x5f, 0x22, 0xbd, 0xd3, 0xdf, 0x45, 0x3e, 0xc1, 0x5a, 0x3d, 0xbe,
  0x7a, 0x9f, 0xd2, 0x3e, 0x2d, 0x35, 0x86, 0x3e, 0xd5, 0x48, 0x10, 0xbe,
  0x86, 0xe5, 0x5e, 0xbe, 0x16, 0xbe, 0xd7, 0xbc, 0x6f, 0x57, 0x1a, 0x3c,
  0x72, 0x38, 0x92, 0x3d, 0x20, 0xe9, 0x9c, 0xbc, 0xf9, 0xb7, 0x7a, 0xbd,
  0x23, 0x3f, 0x2e, 0x3e, 0xf3, 0xdd, 0x51, 0xbe, 0xb2, 0x2e, 0x83, 0x3e,
  0xf9, 0x9d, 0x13, 0x3e, 0xcd, 0xac, 0xfc, 0xbd, 0xdc, 0xdb, 0xb3, 0x3d,
  0x57, 0x50, 0xa9, 0xbd, 0x08, 0x34, 0x34, 0xbf, 0xc7, 0x7f, 0xcf, 0x3d,
  0x37, 0xf3, 0xc6, 0x3d, 0x09, 0x56, 0x85, 0xbe, 0xba, 0x83, 0xd1, 0x3d,
  0x41, 0xe6, 0x6b, 0xbd, 0x55, 0xce, 0x82, 0xbd, 0x1d, 0x6c, 0x11, 0xbe,
  0x34, 0x73, 0xf5, 0xbe, 0xd9, 0xc3, 0x6a, 0x3d, 0xac, 0x3a, 0x79, 0xbe,
  0xc8, 0x17, 0xdd, 0xbd, 0x62, 0xed, 0x81, 0x3d, 0x42, 0xd8, 0x75, 0xbe,
  0x16, 0x4b, 0x97, 0x3d, 0xe0, 0xb9, 0x27, 0xbd, 0xa5, 0xf1, 0xd5, 0xbe,
  0x26, 0xc9, 0xb9, 0xbe, 0x79, 0xba, 0xfc, 0x3d, 0xdd, 0xc0, 0x8f, 0xbd,
  0x80, 0x93, 0x7c, 0x3d, 0x7a, 0xb5, 0x3e, 0xbe, 0x1d, 0x15, 0x0d, 0x3d,
  0x95, 0x6a, 0xe0, 0xbd, 0x6e, 0xe8, 0x0d, 0xbf, 0x43, 0x24, 0xbd, 0xbd,
  0x5b, 0xb8, 0x22, 0xbe, 0x77, 0x6d, 0xb4, 0xbd, 0xb1, 0xb2, 0xee, 0xbd,
  0x61, 0xd1, 0xb4, 0xbd, 0x66, 0xc1, 0x82, 0x3e, 0x0b, 0x79, 0x6d, 0xbc,
  0x4d, 0xdd, 0x05, 0xbe, 0x6b, 0x7d, 0x5a, 0xbe, 0x61, 0x65, 0xb5, 0x3c,
  0x2e, 0x84, 0x1b, 0x3d, 0xf9, 0x2b, 0x22, 0xbd, 0x7c, 0x5b, 0xfc, 0x3d,
  0x77, 0x08, 0x4b, 0x3d, 0x3d, 0xa7, 0x16, 0xbe, 0xdf, 0x39, 0xc9, 0xbe,
  0xcc, 0x53, 0xc4, 0xbd, 0x0d, 0xc8, 0x3d, 0xbe, 0x87, 0x0f, 0x98, 0xbd,
  0x64, 0x75, 0xa9, 0x3d, 0xd5, 0x0f, 0x64, 0xbb, 0x49, 0xe5, 0x30, 0x3e,
  0xd5, 0x00, 0x92, 0xbd, 0x6b, 0x5a, 0x62, 0xbb, 0x89, 0x3f, 0x1e, 0xbe,
  0x4b, 0x42, 0xd8, 0xbd, 0xcb, 0xeb, 0xff, 0xbd, 0xda, 0x7b, 0xbd, 0xbe,
  0x62, 0x7b, 0x55, 0xbd, 0xd9, 0xb7, 0xa6, 0x3d, 0xda, 0x47, 0x92, 0xbc,
  0x3d, 0x78, 0xfe, 0xbd, 0xdb, 0xc5, 0x9a, 0xbd, 0x32, 0x5d, 0x12, 0xbe,
  0xc0, 0x79, 0x2e, 0x3e, 0x6a, 0xe2, 0x84, 0xbd, 0x44, 0x68, 0xfb, 0xbc,
  0xa2, 0x62, 0x84, 0x3e, 0x19, 0x41, 0x8e, 0x3b, 0x2e, 0x9a, 0x18, 0xbe,
  0xb7, 0x9d, 0xaa, 0xbe, 0x43, 0x53, 0x37, 0xbd, 0x9c, 0x92, 0x97, 0xbe,
  0x50, 0x7a, 0x7d, 0xbe, 0x41, 0xa7, 0xce, 0x3c, 0xff, 0x83, 0xf7, 0xbd,
  0x2e, 0x4e, 0x2f, 0xbe, 0x64, 0x0f, 0x14, 0xbe, 0x55, 0xe2, 0x84, 0xbe,
  0xa6, 0x4b, 0x7f, 0xbe, 0x27, 0x5a, 0x8d, 0xbc, 0x4f, 0xd5, 0x28, 0x3c,
  0x11, 0xbf, 0xee, 0xbd, 0xcb, 0xb7, 0x79, 0xbd, 0xd2, 0x1b, 0x1a, 0x3e,
  0xb2, 0xca, 0x15, 0xbf, 0x11, 0x5c, 0xe7, 0xbd, 0xa8, 0x71, 0x5f, 0x3e,
  0x25, 0x9d, 0xa7, 0xbd, 0xb8, 0x3c, 0x6c, 0xbe, 0xbd, 0x23, 0x8c, 0xbe,
  0xbc, 0x2b, 0x9e, 0x3d, 0xc4, 0x60, 0x95, 0xbd, 0x2a, 0x9f, 0xba, 0xbe,
  0xaa, 0x9c, 0x00, 0xbe, 0x9c, 0xfa, 0x0b, 0xbd, 0xbb, 0x21, 0x9e, 0x3e,
  0x39, 0x03, 0x9b, 0xbc, 0xc5, 0x23, 0x01, 0x3e, 0x12, 0x89, 0x18, 0xbe,
  0xfc, 0x25, 0xa1, 0x3b, 0x48, 0x4c, 0xd6, 0xbe, 0xfb, 0x98, 0x87, 0xbe,
  0xfb, 0xaf, 0x72, 0x3e, 0xeb, 0xee, 0xcd, 0xbd, 0x97, 0x9d, 0xc4, 0xbe,
  0x06, 0x29, 0xd2, 0x3d, 0x8c, 0xf7, 0x31, 0xbe, 0x5b, 0xc4, 0x94, 0xbc,
  0x3f, 0xc1, 0x77, 0xbe, 0xb5, 0x28, 0xbb, 0x3e, 0x89, 0x71, 0xa8, 0x3e,
  0x42, 0x4e, 0xfb, 0x3d, 0x69, 0x63, 0xe7, 0x3d, 0xa4, 0x74, 0x00, 0xbf,
  0x44, 0x6f, 0x26, 0x3b, 0x8e, 0x16, 0x7c, 0xbd, 0xe6, 0x7e, 0xa5, 0xbe,
  0x92, 0xc1, 0x01, 0x3e, 0x9d, 0x1c, 0xbc, 0xbe, 0x77, 0xdd, 0x09, 0x3f,
  0x9f, 0x0e, 0x26, 0x3d, 0x03, 0x1d, 0x76, 0x3e, 0x03, 0xdd, 0xf4, 0xbe,
  0x51, 0x2f, 0x5f, 0x3d, 0x40, 0x24, 0xd0, 0xbd, 0x6d, 0x06, 0x83, 0x3e,
  0x78, 0x3c, 0x8d, 0x3d, 0x4c, 0xc0, 0xad, 0x3c, 0x2d, 0x50, 0x75, 0xbd,
  0x19, 0xaf, 0xc5, 0xbe, 0x81, 0x34, 0x9e, 0xbd, 0x8a, 0xfc, 0xd9, 0xbe,
  0x28, 0x4f, 0x15, 0xbf, 0xbb, 0x8a, 0x19, 0xbf, 0x0a, 0x44, 0x1b, 0xbf,
  0x4c, 0x36, 0xff, 0x3d, 0xe7, 0x7b, 0xe2, 0x3c, 0x7c, 0xf2, 0x99, 0x3e,
  0x1f, 0xda, 0xd1, 0xbe, 0xab, 0xf1, 0x01, 0x3d, 0x11, 0x3d, 0x2d, 0xbe,
  0xcc, 0xaa, 0x4e, 0xbd, 0x9a, 0x58, 0x03, 0x3f, 0xe8, 0x46, 0xbb, 0x3c,
  0x6f, 0x2e, 0x90, 0x3d, 0x65, 0x6c, 0x63, 0xbe, 0xb4, 0xfe, 0x3f, 0xbe,
  0x9d, 0x87, 0x74, 0xbe, 0x99, 0x27, 0x35, 0xbf, 0xf7, 0xe2, 0xd8, 0xbe,
  0x83, 0xfb, 0x8e, 0xbe, 0x92, 0x74, 0xa3, 0x3e, 0x1c, 0xf2, 0x5b, 0x3d,
  0xbd, 0x69, 0xe3, 0x3d, 0x41, 0x55, 0xc9, 0x3d, 0xca, 0xea, 0xd9, 0x3c,
  0xd7, 0xb8, 0x46, 0x3d, 0x37, 0x93, 0xdf, 0x3c, 0x66, 0x76, 0x90, 0x3e,
  0x82, 0xd5, 0xa4, 0x3d, 0x4b, 0xe6, 0x8d, 0xbc, 0x19, 0x4c, 0x0f, 0xbe,
  0x87, 0x47, 0x82, 0xbe, 0x00, 0x10, 0x05, 0xbf, 0xf8, 0x88, 0x66, 0xbe,
  0x2b, 0xfa, 0xc8, 0xbe, 0xf1, 0x2f, 0x89, 0xbd, 0x0c, 0x44, 0xc7, 0x3e,
  0x0a, 0xa4, 0xa3, 0xbd, 0x0a, 0x11, 0xcf, 0x3d, 0x2c, 0x85, 0xc2, 0xbd,
  0x8e, 0x10, 0x02, 0x3d, 0xe3, 0x94, 0xcb, 0x3d, 0x4a, 0x43, 0x9b, 0x3a,
  0xd8, 0x73, 0xce, 0x3e, 0x7e, 0x95, 0x9a, 0x3d, 0x28, 0x9d, 0x3b, 0x3d,
  0x9b, 0x3e, 0x3c, 0xbe, 0x17, 0xd3, 0xa7, 0xbe, 0x25, 0xba, 0x1c, 0xbf,
  0xd9, 0xb1, 0xf1, 0xbe, 0xa1, 0xd4, 0x54, 0xbe, 0xb6, 0x19, 0x1e, 0xbe,
  0x94, 0xcc, 0xfe, 0x3e, 0xe1, 0x97, 0xf3, 0x3c, 0xa4, 0x56, 0x17, 0x3d,
  0x70, 0x87, 0x6d, 0xbe, 0x28, 0x06, 0x75, 0x3c, 0x71, 0xe3, 0x98, 0xbc,
  0x28, 0x7c, 0xd1, 0x3d, 0xa5, 0x4f, 0xa5, 0x3e, 0x50, 0x34, 0x1b, 0x3e,
  0xa4, 0x76, 0x63, 0xbe, 0x91, 0x0c, 0x6d, 0xbe, 0xb9, 0x52, 0x47, 0xbf,
  0x84, 0x08, 0x4c, 0xbf, 0x62, 0x85, 0x03, 0xbf, 0x0e, 0x02, 0xaf, 0xbe,
  0xf4, 0x45, 0x82, 0xbc, 0xef, 0x60, 0xf4, 0x3e, 0x19, 0x5e, 0x06, 0xbd,
  0xd7, 0x49, 0xbb, 0x3c, 0xa2, 0x41, 0x36, 0xbf, 0x3b, 0xa3, 0x44, 0x3c,
  0x3a, 0x3d, 0x1f, 0xbe, 0x56, 0x17, 0x7b, 0x3c, 0xf3, 0x88, 0x40, 0x3d,
  0x21, 0xb9, 0x48, 0x3c, 0x58, 0xfe, 0x16, 0xbd, 0xd2, 0x76, 0x41, 0x3d,
  0x65, 0x2b, 0xc5, 0xbe, 0x0d, 0xd3, 0x25, 0xbd, 0xe7, 0x8e, 0x30, 0xbf,
  0x55, 0xe1, 0xac, 0xbe, 0x6a, 0x0f, 0xc6, 0x3d, 0x4f, 0x0c, 0x0a, 0xbe,
  0x36, 0x53, 0xae, 0x3d, 0xb8, 0x90, 0x91, 0x3d, 0x2c, 0x1a, 0x8a, 0xbe,
  0x78, 0x75, 0xb7, 0x3c, 0x34, 0xde, 0x78, 0xbe, 0x82, 0x72, 0x56, 0x3e,
  0x0e, 0xe3, 0xb9, 0xbe, 0xc1, 0xb7, 0x06, 0x3e, 0x46, 0x94, 0x05, 0x3e,
  0xef, 0xdd, 0x18, 0xbe, 0x89, 0xfe, 0xcb, 0x3d, 0x9a, 0x0e, 0xb8, 0xbd,
  0x2b, 0x04, 0xe4, 0xbe, 0xc0, 0x41, 0xf3, 0x3d, 0x78, 0xa8, 0xb9, 0xbb,
  0x6a, 0x46, 0x9a, 0xbe, 0xb3, 0xf8, 0x85, 0xbe, 0x06, 0x5a, 0x52, 0xbd,
  0x79, 0x80, 0x70, 0x3e, 0x62, 0x33, 0x64, 0xbe, 0x1d, 0x8a, 0x1a, 0xbf,
  0x4c, 0xfc, 0x6f, 0xbe, 0xd4, 0xe8, 0xc3, 0xbe, 0xb2, 0xe0, 0xc7, 0xbc,
  0x5f, 0x4c, 0xa8, 0x3c, 0x26, 0xaf, 0x09, 0xbe, 0x66, 0xe7, 0xd4, 0x3d,
  0x7d, 0x3f, 0xbc, 0x3a, 0xe0, 0x4d, 0x20, 0xbf, 0xaa, 0xb8, 0xcf, 0xbe,
  0xf9, 0x89, 0x41, 0x3d, 0xd5, 0xda, 0x87, 0x3c, 0xd2, 0xf9, 0x64, 0xbe,
  0x3b, 0x1d, 0x73, 0x3b, 0x03, 0xdf, 0xe7, 0xbd, 0x0d, 0x22, 0xb2, 0x3d,
  0x5d, 0xc3, 0xb6, 0xbe, 0x83, 0xd7, 0x60, 0xbe, 0x0d, 0x0b, 0xca, 0xbe,
  0xc6, 0xcb, 0xdb, 0x3d, 0xd5, 0xd3, 0x59, 0xbc, 0x80, 0xb1, 0x26, 0xbe,
  0x54, 0x07, 0xef, 0x3d, 0x27, 0x86, 0xe6, 0x3c, 0xf7, 0x1c, 0x7d, 0xbd,
  0xc8, 0x45, 0x2c, 0xbe, 0x6c, 0xe8, 0x07, 0xbe, 0x52, 0xd2, 0x59, 0xbe,
  0xcf, 0x09, 0x2f, 0x3d, 0xa0, 0x00, 0x1d, 0xbe, 0x2c, 0x7d, 0xe2, 0xbc,
  0x43, 0xf1, 0x30, 0xba, 0x10, 0xd8, 0xcc, 0xbd, 0xee, 0xd8, 0xaf, 0xbd,
  0x7b, 0x8f, 0xda, 0xbe, 0xb9, 0xad, 0x02, 0x3d, 0xaf, 0x0f, 0x9b, 0xbd,
  0x58, 0xa3, 0x1a, 0xbd, 0x31, 0x8a, 0x60, 0x3d, 0xd8, 0x5b, 0xee, 0x3d,
  0x99, 0x93, 0xa2, 0xbc, 0x2f, 0xb2, 0x8d, 0xbe, 0x3c, 0x82, 0xa2, 0x3d,
  0x82, 0xa9, 0x09, 0x3e, 0x9a, 0xf6, 0xb8, 0xbd, 0xe2, 0x47, 0x24, 0xbe,
  0x9e, 0xb0, 0x08, 0x3e, 0xd4, 0x53, 0xc8, 0x3c, 0x71, 0xb9, 0xdf, 0xbc,
  0xf0, 0xdc, 0xb1, 0xbe, 0xff, 0x04, 0x72, 0xbe, 0xa1, 0x52, 0x7b, 0xbc,
  0x23, 0x58, 0x8d, 0xbc, 0x85, 0x16, 0x69, 0xbc, 0x64, 0x97, 0x25, 0x3c,
  0xc3, 0xf0, 0x8a, 0xbc, 0x72, 0x0c, 0x01, 0xbe, 0x3f, 0x06, 0x5c, 0xbe,
  0xd1, 0x44, 0xf6, 0x3c, 0x2d, 0xf3, 0x8d, 0xbe, 0x6f, 0x2d, 0x06, 0xbe,
  0x1f, 0x3d, 0xbf, 0xbc, 0xd2, 0x47, 0xd0, 0x3b, 0x33, 0x07, 0x12, 0xbd,
  0x8a, 0xd3, 0x27, 0xbe, 0xa3, 0x03, 0x13, 0xbf, 0xca, 0x32, 0xb7, 0xbe,
  0x2a, 0x8f, 0x84, 0x3d, 0x68, 0x07, 0x87, 0x3d, 0xbf, 0x16, 0x3e, 0xbd,
  0x2f, 0xd2, 0x07, 0xbe, 0x5b, 0x1d, 0xfd, 0x3d, 0x49, 0x40, 0xc1, 0xbe,
  0x83, 0xbd, 0xab, 0xbc, 0x50, 0x6c, 0x59, 0x3e, 0x2d, 0x86, 0xad, 0x3a,
  0xf0, 0x6b, 0xb5, 0xbe, 0x55, 0xd9, 0xed, 0xbd, 0xb1, 0x2c, 0x1e, 0x3b,
  0x8e, 0x33, 0x38, 0xbe, 0x7b, 0xca, 0xc1, 0xbe, 0x8e, 0xe7, 0x90, 0xbe,
  0x3f, 0xb9, 0x11, 0xbe, 0x0d, 0x28, 0xdb, 0x3e, 0x3b, 0xb0, 0xea, 0x3d,
  0x78, 0x67, 0x37, 0xbf, 0xb6, 0x0b, 0x7e, 0xbe, 0x90, 0xd1, 0xc2, 0xbd,
  0xfe, 0x12, 0xa2, 0xbe, 0x16, 0xe6, 0x4b, 0xbe, 0x5b, 0x0f, 0x8b, 0x3e,
  0x97, 0x81, 0x1f, 0xbf, 0xc7, 0x37, 0x02, 0xbf, 0xcf, 0xfa, 0x5f, 0xbe,
  0x90, 0x62, 0x4f, 0xbd, 0xc8, 0xaf, 0x63, 0xbe, 0x52, 0x1d, 0x79, 0xbe,
  0xdb, 0xf7, 0x11, 0x3e, 0xd3, 0x8f, 0xcf, 0x3d, 0x9b, 0x0b, 0x4e, 0x3e,
  0x10, 0x57, 0x26, 0xbf, 0xc2, 0xbe, 0x73, 0x3d, 0x3e, 0x57, 0x30, 0xbe,
  0xf1, 0x32, 0x88, 0xbe, 0xce, 0xce, 0x06, 0xbd, 0xf6, 0xdc, 0x14, 0x3e,
  0x6e, 0x03, 0xbc, 0x3d, 0x21, 0x10, 0xb8, 0x3e, 0x21, 0x3e, 0x9c, 0x3e,
  0xa0, 0x68, 0x8a, 0x3e, 0xf8, 0x00, 0xb0, 0xbe, 0x7f, 0xd6, 0xce, 0xbd,
  0x7e, 0xe4, 0x4e, 0xbe, 0x4e, 0x8a, 0xe4, 0x3d, 0x3d, 0xba, 0x83, 0xbe,
  0x55, 0x1e, 0xed, 0x3b, 0x40, 0x95, 0x5d, 0xbf, 0xad, 0xe2, 0xea, 0xbe,
  0xd0, 0xdb, 0x38, 0xbd, 0x76, 0xa1, 0x10, 0xbf, 0xd6, 0x78, 0xbd, 0xbe,
  0xe2, 0x2d, 0xdd, 0xbd, 0x9d, 0xee, 0x59, 0xbe, 0xbb, 0x29, 0x35, 0xbe,
  0xe2, 0x51, 0x21, 0xbc, 0x36, 0x0a, 0x5e, 0x3e, 0x77, 0xce, 0x43, 0xbf,
  0x18, 0xcd, 0x65, 0xbe, 0xab, 0xc1, 0xd1, 0xbe, 0xa6, 0x20, 0xc9, 0x3a,
  0xb2, 0x64, 0xcc, 0xbd, 0xee, 0x25, 0x59, 0x3e, 0x1b, 0x99, 0x94, 0xbe,
  0x31, 0xda, 0xd4, 0xbe, 0x60, 0xed, 0xb0, 0xbc, 0xf0, 0x8a, 0xa4, 0xbe,
  0xbc, 0x21, 0xb3, 0xbd, 0x1b, 0xeb, 0x66, 0xbc, 0x29, 0x6a, 0x42, 0xbe,
  0xc7, 0xce, 0x0b, 0xbe, 0x01, 0x5b, 0xa8, 0x3d, 0xe4, 0x5e, 0x41, 0x3d,
  0xbe, 0x1e, 0x1f, 0xbe, 0xf4, 0xff, 0x45, 0xbe, 0xb5, 0xd3, 0x4f, 0xbd,
  0xdd, 0x86, 0x17, 0x3e, 0x36, 0x39, 0x50, 0x3d, 0xd8, 0x47, 0xab, 0x3d,
  0x25, 0x66, 0x8f, 0xbd, 0xed, 0x2c, 0x98, 0xbe, 0x2d, 0x6d, 0x34, 0xbe,
  0xba, 0xd5, 0x90, 0x3d, 0xd5, 0x5f, 0x99, 0xbd, 0x6d, 0xb7, 0x8b, 0xb9,
  0x57, 0x6f, 0xaf, 0x3d, 0x31, 0xac, 0xb8, 0xbc, 0x53, 0x78, 0x0f, 0x3e,
  0xdd, 0xfb, 0x87, 0xbd, 0xc1, 0x89, 0x86, 0x3d, 0x80, 0xf2, 0x8f, 0x3c,
  0x8a, 0x13, 0x27, 0x3d, 0x47, 0x42, 0x02, 0x3d, 0x8f, 0x4f, 0x62, 0x3d,
  0xa7, 0xac, 0xf3, 0xbe, 0x77, 0xec, 0x6f, 0xbe, 0xae, 0x66, 0x21, 0xbe,
  0x9b, 0x56, 0x9c, 0xbe, 0x76, 0xdb, 0xd7, 0xbe, 0x55, 0x00, 0x51, 0x3e,
  0x27, 0xbd, 0x05, 0x3d, 0x6a, 0x5e, 0xf0, 0xbd, 0xa7, 0xd5, 0x0e, 0x3d,
  0x10, 0xdb, 0x22, 0x3e, 0x3f, 0xf1, 0x3d, 0x3e, 0x99, 0x01, 0xb4, 0xbe,
  0x80, 0xf4, 0x47, 0xbd, 0x2c, 0xc1, 0xc7, 0xbb, 0xdc, 0x67, 0xf6, 0x3d,
  0xdc, 0x05, 0x83, 0x3e, 0xc9, 0x14, 0x05, 0xbe, 0x46, 0x6f, 0x08, 0xbf,
  0x4f, 0xd8, 0x19, 0xbe, 0xa5, 0x33, 0x0b, 0xbe, 0xbe, 0x6c, 0x39, 0xbf,
  0x88, 0x12, 0x8d, 0xbd, 0x58, 0x5f, 0x85, 0xbd, 0xeb, 0xa1, 0xdc, 0xbe,
  0x65, 0xe3, 0xd0, 0x3e, 0x75, 0x59, 0xa2, 0x3d, 0xd3, 0x26, 0xb3, 0x3d,
  0x79, 0x19, 0xd6, 0xbe, 0x29, 0x43, 0x10, 0x3e, 0x01, 0xca, 0x3a, 0xbe,
  0x8e, 0x63, 0xe3, 0x3d, 0xe3, 0xca, 0x03, 0x3e, 0x93, 0x80, 0xdd, 0xbe,
  0xd8, 0x82, 0xe6, 0xbe, 0xdb, 0xb0, 0x3e, 0xbe, 0xdb, 0x0f, 0x48, 0xbd,
  0xae, 0xd1, 0xaf, 0x3e, 0xe5, 0xe4, 0xe3, 0xbe, 0x78, 0x10, 0x33, 0x3e,
  0x60, 0x50, 0x0f, 0xbe, 0x59, 0x39, 0x98, 0xbe, 0x35, 0xca, 0x40, 0xbd,
  0x5f, 0x7f, 0xb1, 0x3d, 0x13, 0x26, 0xd4, 0xbe, 0x23, 0x56, 0xbf, 0xbd,
  0x18, 0x59, 0xa4, 0xbd, 0x75, 0xe4, 0x93, 0xbd, 0x64, 0x00, 0xa0, 0xbd,
  0x35, 0xa5, 0x9d, 0xbb, 0x24, 0x24, 0x68, 0x3d, 0x2c, 0xd7, 0x81, 0xbd,
  0x4c, 0x21, 0xb0, 0xbd, 0x68, 0xfd, 0xfd, 0x3c, 0xbe, 0xc7, 0x9f, 0x3e,
  0x8f, 0x61, 0xa8, 0x3d, 0xf7, 0xc7, 0x81, 0xbe, 0x33, 0x64, 0x6a, 0x3d,
  0x1e, 0x84, 0x77, 0xbe, 0xf1, 0x3d, 0xcf, 0xbd, 0xe9, 0xbb, 0x58, 0xbe,
  0x2b, 0x86, 0x91, 0xbe, 0x83, 0xf0, 0x82, 0xbd, 0x10, 0x84, 0xb9, 0xbd,
  0xb3, 0x00, 0x4c, 0xbe, 0x94, 0x6f, 0x1a, 0xbe, 0x68, 0x66, 0x4b, 0xbd,
  0xbe, 0x9f, 0x55, 0xbe, 0xfe, 0x1c, 0x5c, 0x3d, 0x47, 0x86, 0xd1, 0x3d,
  0x3d, 0x6f, 0x13, 0x3e, 0x9a, 0xbe, 0xb9, 0x3c, 0xb6, 0x75, 0x3e, 0xbd,
  0x6e, 0x8f, 0x35, 0x3e, 0xac, 0x26, 0xbe, 0xb7, 0x47, 0xc2, 0xb1, 0xbe,
  0x51, 0xdb, 0x5b, 0xbc, 0xd2, 0xcd, 0x72, 0xbe, 0xdd, 0x8f, 0x3f, 0xbd,
  0x32, 0x04, 0x91, 0xbd, 0x76, 0x2f, 0x03, 0xbe, 0x13, 0x3d, 0x3e, 0x3e,
  0xe9, 0xe3, 0x80, 0xbc, 0x37, 0x3f, 0xae, 0x3e, 0xf7, 0x03, 0x1c, 0xbc,
  0xd0, 0xb3, 0xe9, 0xbc, 0xb9, 0xa9, 0x89, 0x3e, 0x3f, 0x74, 0xf0, 0xbd,
  0xfb, 0x12, 0x38, 0x3e, 0xfb, 0x37, 0xe3, 0x3d, 0xd8, 0xa4, 0xac, 0x3e,
  0x28, 0x5e, 0x02, 0xbe, 0xe4, 0x87, 0x6b, 0xbe, 0x00, 0x08, 0x96, 0xbe,
  0x87, 0xff, 0x30, 0x39, 0xb8, 0x3e, 0xeb, 0xbc, 0x02, 0x12, 0x36, 0xbd,
  0xc6, 0x23, 0x83, 0x3c, 0x94, 0xce, 0xdc, 0x3b, 0x64, 0x66, 0x91, 0x3e,
  0xed, 0x72, 0xa0, 0xbd, 0xa4, 0x64, 0xe7, 0xbd, 0x51, 0x71, 0x8f, 0xbe,
  0xc6, 0x4a, 0x92, 0xbd, 0x85, 0x83, 0xd1, 0x3a, 0x84, 0x6f, 0xfe, 0xbb,
  0x63, 0x06, 0x58, 0x3d, 0xd3, 0x6c, 0x0c, 0xbe, 0x89, 0x40, 0x71, 0xbd,
  0x71, 0x2b, 0x94, 0xbe, 0x9c, 0x33, 0x58, 0xbe, 0x63, 0xe7, 0xe2, 0xbd,
  0xfe, 0xa6, 0xf3, 0x3c, 0xbe, 0xb5, 0x86, 0xbb, 0xd1, 0x70, 0x23, 0x3e,
  0x98, 0x56, 0x17, 0x3b, 0x6d, 0xca, 0x10, 0xbe, 0xb8, 0x8a, 0x0b, 0x3d,
  0xf9, 0xae, 0x3a, 0x3e, 0x5d, 0xe0, 0x30, 0xbe, 0xcd, 0xcb, 0x79, 0xbb,
  0xcd, 0x31, 0xd5, 0x3c, 0xe3, 0x2c, 0xe8, 0x3d, 0x04, 0xf6, 0x79, 0xbe,
  0x2c, 0xbf, 0x91, 0x3c, 0xc8, 0xcc, 0x38, 0xbe, 0x3e, 0x68, 0x4e, 0xbe,
  0x91, 0x21, 0x0d, 0x3d, 0x7c, 0x70, 0xd8, 0xbc, 0xfe, 0x57, 0x48, 0xbe,
  0xd3, 0xdf, 0x09, 0x3d, 0x29, 0x7d, 0xbe, 0xbd, 0x0b, 0x31, 0x4f, 0x3e,
  0xef, 0x71, 0x48, 0xbd, 0xbd, 0xe9, 0xb0, 0x3e, 0x94, 0x9e, 0xe8, 0xbd,
  0xba, 0x27, 0x84, 0x3e, 0x61, 0xe4, 0xf0, 0xbd, 0xd0, 0x33, 0xa3, 0x3e,
  0x3f, 0x96, 0xec, 0xbd, 0x19, 0x99, 0x17, 0xbe, 0xa4, 0xd2, 0x55, 0xbe,
  0x8a, 0x74, 0x1e, 0x3e, 0xcc, 0xab, 0xe3, 0x3d, 0xc8, 0x38, 0x12, 0xbe,
  0x26, 0x45, 0x28, 0x3e, 0x6a, 0xe2, 0x7f, 0xbd, 0xdf, 0xa7, 0x44, 0xbd,
  0xd8, 0xf7, 0x4e, 0x3e, 0x9e, 0xe3, 0xa6, 0xbd, 0x93, 0x84, 0xb3, 0x3e,
  0xb8, 0x26, 0x33, 0x3e, 0xb1, 0xfa, 0x87, 0x3d, 0xd4, 0x2a, 0x86, 0x3e,
  0x41, 0xc8, 0x6c, 0x3e, 0x79, 0xa2, 0x23, 0xbd, 0x8f, 0x2c, 0xb7, 0x3d,
  0xaa, 0x8b, 0x09, 0xbe, 0x07, 0x41, 0x63, 0x3e, 0x4a, 0xfe, 0xff, 0xff,
  0x10, 0x00, 0x00, 0x00, 0x05, 0x00, 0x00, 0x00, 0x14, 0x00, 0x00, 0x00,
  0x2c, 0x00, 0x00, 0x00, 0x02, 0x00, 0x00, 0x00, 0x10, 0x00, 0x00, 0x00,
  0x70, 0x00, 0x00, 0x00, 0x17, 0x00, 0x00, 0x00, 0x73, 0x65, 0x71, 0x75,
  0x65, 0x6e, 0x74, 0x69, 0x61, 0x6c, 0x2f, 0x64, 0x65, 0x6e, 0x73, 0x65,
  0x2f, 0x4d, 0x61, 0x74, 0x4d, 0x75, 0x6c, 0x00, 0x38, 0xfe, 0xff, 0xff,
  0x2e, 0xff, 0xff, 0xff, 0x04, 0x00, 0x00, 0x00, 0x08, 0x00, 0x00, 0x00,
  0xff, 0xff, 0xff, 0xff, 0x70, 0x00, 0x00, 0x00, 0x00, 0x00, 0x0e, 0x00,
  0x18, 0x00, 0x08, 0x00, 0x07, 0x00, 0x0c, 0x00, 0x10, 0x00, 0x14, 0x00,
  0x0e, 0x00, 0x00, 0x00, 0x00, 0x00, 0x00, 0x02, 0x10, 0x00, 0x00, 0x00,
  0x04, 0x00, 0x00, 0x00, 0x10, 0x00, 0x00, 0x00, 0x2c, 0x00, 0x00, 0x00,
  0x01, 0x00, 0x00, 0x00, 0x02, 0x00, 0x00, 0x00, 0x18, 0x00, 0x00, 0x00,
  0x73, 0x65, 0x71, 0x75, 0x65, 0x6e, 0x74, 0x69, 0x61, 0x6c, 0x2f, 0x66,
  0x6c, 0x61, 0x74, 0x74, 0x65, 0x6e, 0x2f, 0x43, 0x6f, 0x6e, 0x73, 0x74,
  0x00, 0x00, 0x00, 0x00, 0xa0, 0xfe, 0xff, 0xff, 0x96, 0xff, 0xff, 0xff,
  0x04, 0x00, 0x00, 0x00, 0x0c, 0x00, 0x00, 0x00, 0xd6, 0x42, 0xf7, 0x3f,
  0xaf, 0x87, 0x14, 0xc0, 0xfd, 0x7c, 0xd7, 0xbe, 0x0a, 0xff, 0xff, 0xff,
  0x10, 0x00, 0x00, 0x00, 0x03, 0x00, 0x00, 0x00, 0x10, 0x00, 0x00, 0x00,
  0x3c, 0x00, 0x00, 0x00, 0x01, 0x00, 0x00, 0x00, 0x03, 0x00, 0x00, 0x00,
  0x29, 0x00, 0x00, 0x00, 0x73, 0x65, 0x71, 0x75, 0x65, 0x6e, 0x74, 0x69,
  0x61, 0x6c, 0x2f, 0x64, 0x65, 0x6e, 0x73, 0x65, 0x5f, 0x31, 0x2f, 0x42,
  0x69, 0x61, 0x73, 0x41, 0x64, 0x64, 0x2f, 0x52, 0x65, 0x61, 0x64, 0x56,
  0x61, 0x72, 0x69, 0x61, 0x62, 0x6c, 0x65, 0x4f, 0x70, 0x00, 0x00, 0x00,
  0x60, 0xff, 0xff, 0xff, 0x00, 0x00, 0x06, 0x00, 0x08, 0x00, 0x04, 0x00,
  0x06, 0x00, 0x00, 0x00, 0x04, 0x00, 0x00, 0x00, 0x40, 0x00, 0x00, 0x00,
  0x45, 0x00, 0xcc, 0x3e, 0xec, 0xdb, 0x9f, 0x3f, 0xf9, 0x9f, 0xae, 0x3f,
  0x63, 0x8b, 0xcd, 0xbe, 0x8c, 0x5a, 0x77, 0x3f, 0xc3, 0x4d, 0xd6, 0x3e,
  0xb5, 0x73, 0xa9, 0x3f, 0x7d, 0x84, 0xab, 0xbe, 0xa1, 0x0c, 0x09, 0xbf,
  0xb3, 0x90, 0xae, 0xbd, 0xd3, 0x78, 0x70, 0xbf, 0xb7, 0xdd, 0x62, 0x3f,
  0x77, 0xfb, 0x11, 0x40, 0xe9, 0xf4, 0xa0, 0x3f, 0xa9, 0xed, 0x0d, 0xbe,
  0xc6, 0xb6, 0x5d, 0xbd, 0xae, 0xff, 0xff, 0xff, 0x10, 0x00, 0x00, 0x00,
  0x02, 0x00, 0x00, 0x00, 0x10, 0x00, 0x00, 0x00, 0x3c, 0x00, 0x00, 0x00,
  0x01, 0x00, 0x00, 0x00, 0x10, 0x00, 0x00, 0x00, 0x27, 0x00, 0x00, 0x00,
  0x73, 0x65, 0x71, 0x75, 0x65, 0x6e, 0x74, 0x69, 0x61, 0x6c, 0x2f, 0x64,
  0x65, 0x6e, 0x73, 0x65, 0x2f, 0x42, 0x69, 0x61, 0x73, 0x41, 0x64, 0x64,
  0x2f, 0x52, 0x65, 0x61, 0x64, 0x56, 0x61, 0x72, 0x69, 0x61, 0x62, 0x6c,
  0x65, 0x4f, 0x70, 0x00, 0x04, 0x00, 0x06, 0x00, 0x04, 0x00, 0x00, 0x00,
  0x00, 0x00, 0x0e, 0x00, 0x14, 0x00, 0x04, 0x00, 0x00, 0x00, 0x08, 0x00,
  0x0c, 0x00, 0x10, 0x00, 0x0e, 0x00, 0x00, 0x00, 0x10, 0x00, 0x00, 0x00,
  0x01, 0x00, 0x00, 0x00, 0x1c, 0x00, 0x00, 0x00, 0x2c, 0x00, 0x00, 0x00,
  0x04, 0x00, 0x00, 0x00, 0x01, 0x00, 0x00, 0x00, 0x40, 0x00, 0x00, 0x00,
  0x03, 0x00, 0x00, 0x00, 0x01, 0x00, 0x00, 0x00, 0x0c, 0x00, 0x00, 0x00,
  0x63, 0x6f, 0x6e, 0x76, 0x32, 0x64, 0x5f, 0x69, 0x6e, 0x70, 0x75, 0x74,
  0x00, 0x00, 0x00, 0x00, 0xfc, 0xff, 0xff, 0xff, 0x04, 0x00, 0x04, 0x00,
  0x04, 0x00, 0x00, 0x00

};


unsigned int model_tflite_len = 12316;// Fill the int in `src/model.cc` here